{"version":"1.0","truncation":null,"padding":null,"added_tokens":[{"id":0,"special":true,"content":"<|endoftext|>","single_word":false,"lstrip":false,"rstrip":false,"normalized":false},{"id":1,"special":true,"content":"Cambridge","single_word":false,"lstrip":false,"rstrip":false,"normalized":false},{"id":2,"special":true,"content":"Oxford","single_word":false,"lstrip":false,"rstrip":false,"normalized":false}],"normalizer":null,"pre_tokenizer":{"type":"Whitespace"},"post_processor":null,"decoder":null,"model":{"type":"BPE","dropout":null,"unk_token":null,"continuing_subword_prefix":null,"end_of_word_suffix":null,"fuse_unk":false,"vocab":{"<|endoftext|>":0,"Cambridge":1,"Oxford":2,"!":3,"\"":4,"#":5,"$":6,"%":7,"&":8,"'":9,"(":10,")":11,"*":12,"+":13,",":14,"-":15,".":16,"/":17,"0":18,"1":19,"2":20,"3":21,"4":22,"5":23,"6":24,"7":25,"8":26,"9":27,":":28,";":29,"<":30,"=":31,">":32,"?":33,"@":34,"A":35,"B":36,"C":37,"D":38,"E":39,"F":40,"G":41,"H":42,"I":43,"J":44,"K":45,"L":46,"M":47,"N":48,"O":49,"P":50,"Q":51,"R":52,"S":53,"T":54,"U":55,"V":56,"W":57,"X":58,"Y":59,"Z":60,"[":61,"\\":62,"]":63,"^":64,"_":65,"`":66,"a":67,"b":68,"c":69,"d":70,"e":71,"f":72,"g":73,"h":74,"i":75,"j":76,"k":77,"l":78,"m":79,"n":80,"o":81,"p":82,"q":83,"r":84,"s":85,"t":86,"u":87,"v":88,"w":89,"x":90,"y":91,"z":92,"{":93,"|":94,"}":95,"~":96,"\\<":97,"su":98,"ro":99,"in":100,"al":101,"sub":102,"te":103,"ta":104,"ri":105,"nd":106,"le":107,"of":108,"on":109,"\\<^":110,"am":111,"go":112,"ra":113,"is":114,"goal":115,"pro":116,"gh":117,"row":118,"tar":119,"tarrow":120,"ghtarrow":121,"se":122,"th":123,"ge":124,"rightarrow":125,"))":126,"re":127,"amb":128,"ong":129,"ongrightarrow":130,"bra":131,"ar":132,"or":133,"st":134,"xt":135,"ma":136,"kk":137,"brakk":138,"dge":139,"proof":140,"end":141,"A_":142,"OB":143,"IS":144,"text":145,"ridge":146,"<|":147,"|>":148,"OBS":149,"endof":150,"Camb":151,"A_OBS":152,"ISA_OBS":153,"endoftext":154,"ve":155,"(\\<":156,"Longrightarrow":157,"and":158,"subgoal":159,"):":160,"no":161,"ng":162,">\\<":163,"de":164,"ist":165,"si":166,"this":167,"sta":168,">\\<^":169,"om":170,"And":171,"teq":172,"la":173,"state":174,"ing":175,"set":176,"ex":177,"lbrakk":178,"rbrakk":179,"ur":180,"prove":181,"us":182,"lo":183,"all":184,"Su":185,"ngle":186,"ha":187,"ce":188,"en":189,"for":190,"ile":191,"urn":192,"ti":193,"t_":194,"un":195,"Suc":196,"ol":197,"stile":198,"urnstile":199,"da":200,"me":201,"xs":202,"ists":203,"par":204,"forall":205,"el":206,"exists":207,"amma":208,"s_":209,"turnstile":210,"ter":211,"ambda":212,"lambda":213,"er":214,"not":215,"using":216,"noteq":217,"to":218,"mp":219,"at":220,"d_":221,"')":222,"ot":223,"longrightarrow":224,"Gamma":225,"subse":226,"subseteq":227,"ngth":228,"map":229,"length":230,"ap":231,"as":232,");":233,"pl":234,"ck":235,"es":236,"hi":237,"pa":238,"ion":239,"by":240,"sup":241,"_c":242,"ad":243,"real":244,"bsub":245,"esub":246,"sh":247,">)":248,"ul":249,"rangle":250,"langle":251,"it":252,"ac":253,"''":254,"get":255,"subgoals":256,"ts":257,"val":258,"_of":259,"up":260,"list":261,"',":262,"pre":263,"if":264,"pi":265,"sig":266,"op":267,"_in":268,"ct":269,"parr":270,")\\<":271,"ow":272,"flo":273,"simp":274,"il":275,"tion":276,"au":277,"union":278,"ca":279,"ss":280,"ch":281,"sigma":282,"fin":283,"car":284,")))":285,"inter":286,"dot":287,"'.":288,"Ri":289,"arp":290,"Rightarrow":291,"mo":292,"((":293,"di":294,"..":295,"ys":296,"[]":297,"::":298,"ome":299,"In":300,"ru":301,"ir":302,"appl":303,"xa":304,"orm":305,"eta":306,">(":307,"con":308,"phi":309,"apply":310,"old":311,"ne":312,"fst":313,"floor":314,"vs":315,"co":316,"tau":317,"omp":318,"cdot":319,"m_":320,"snd":321,"then":322,"nt":323,"sharp":324,"alle":325,"sto":326,"x2":327,"pha":328,"alpha":329,"_de":330,">*":331,"hain":332,">;":333,"notin":334,"allel":335,"ds":336,"parallel":337,"ran":338,"pol":339,"ms":340,">,":341,"rh":342,"brace":343,"Re":344,"ps":345,"bs":346,"let":347,"id":348,"_s":349,"thes":350,"thesis":351,"cs":352,"ute":353,"Some":354,"rt":355,"x1":356,"chain":357,"var":358,"ree":359,"have":360,"_of_":361,"'\\<":362,"ty":363,"Psi":364,"bo":365,"ke":366,"case":367,"else":368,"),":369,"int":370,"::'":371,"poly":372,":=":373,"va":374,"auto":375,"rier":376,"one":377,"cl":378,"eq":379,"pick":380,"c_":381,"carrier":382,"ba":383,"time":384,"mat":385,"{}":386,"lef":387,"alse":388,"picking":389,"mapsto":390,"ver":391,"No":392,"Un":393,"aa":394,"rel":395,"False":396,"times":397,"';":398,"p_":399,"ind":400,"sq":401,"add":402,"bul":403,"lem":404,"bullet":405,"is_":406,"li":407,"rparr":408,"lparr":409,"nu":410,"acute":411,"comp":412,"node":413,"ze":414,"_def":415,"ite":416,"Var":417,"clo":418,"gu":419,"Con":420,"ble":421,"he":422,">'":423,"min":424,"fi":425,"dom":426,"pe":427,"s1":428,"ormal":429,").":430,"dist":431,"_p":432,"ght":433,">.":434,"own":435,"])":436,"lex":437,"del":438,"Del":439,"s2":440,"nat":441,"ed":442,"Delta":443,"close":444,"rho":445,"mem":446,"bold":447,"et":448,"Rel":449,"rule":450,"left":451,"lfloor":452,"cal":453,"tr":454,"fs":455,"Ex":456,"plus":457,"ga":458,"mod":459,"gamma":460,"rs":461,"ame":462,"finite":463,"path":464,"_f":465,"vec":466,"prec":467,"long":468,"Sum":469,"und":470,"rfloor":471,"right":472,"Le":473,"cir":474,"rue":475,"po":476,"})":477,"delta":478,"exp":479,"ab":480,"asu":481,"ok":482,"illem":483,"guillem":484,"guillemot":485,"gs":486,"open":487,"f_":488,"inse":489,"measu":490,"fold":491,"Pro":492,"bar":493,"circ":494,"lass":495,"pace":496,"tran":497,"an":498,"lbrace":499,"rbrace":500,"pc":501,"ut":502,"&&":503,"))))":504,"down":505,"local":506,"card":507,"None":508,"mu":509,"deg":510,"teg":511,"Normal":512,"True":513,"ll":514,"insert":515,"atom":516,"show":517,"ec":518,"beta":519,"_re":520,"ns":521,"..<":522,"psi":523,"(-":524,"last":525,"fa":526,"pt":527,"otimes":528,"fro":529,"id_":530,"mon":531,"atch":532,"measure":533,"subst":534,"so":535,"ult":536,"ip":537,"Ma":538,"mf":539,"r_":540,"ef":541,"Union":542,"mds":543,"_int":544,"IV":545,"ls":546,"ria":547,"eval":548,"ry":549,"fm":550,"inde":551,"env":552,"low":553,"bd":554,"complex":555,"_i":556,"c1":557,"um":558,"sum":559,"mset":560,")\"":561,"UN":562,"valid_":563,"edge":564,"t2":565,"t1":566,"ral":567,"Turnstile":568,"name":569,"trans":570,"x_":571,"ond":572,"the":573,"sm":574,"cf":575,"type":576,"_on":577,"list_":578,"_of_real":579,"qed":580,"c2":581,"stri":582,"complex_of_real":583,"e2":584,"e1":585,"oplus":586,"theta":587,"od":588,"ln":589,"fix":590,"*\\<^":591,"dis":592,"ide":593,"getM":594,"ES":595,"ob":596,"tegral":597,"zero":598,"na":599,"ext":600,"div":601,"guillemotright":602,"pp":603,"UNIV":604,"to_":605,"space":606,"turn":607,"(?":608,"));":609,"lin":610,"ct_":611,"hd":612,"((\\<":613,"\"\\<":614,"degree":615,"ws":616,"uts":617,"longmapsto":618,"unfold":619,">{":620,"red":621,"y_":622,"bb":623,"pr":624,")\\<^":625,"index":626,"Col":627,"],":628,"take":629,"of_":630,"ass":631,"}.":632,"urce":633,"v_":634,"next":635,"norm":636,"lt":637,"tep":638,"verse":639,"evs":640,">))":641,"suc":642,"Conf":643,"range":644,"ins":645,"equ":646,"l_":647,"ST":648,"$$":649,"appro":650,"wi":651,"varia":652,"Watch":653,"mi":654,"unfolding":655,"orde":656,")}":657,"real_of":658,"from":659,"ua":660,"star":661,"match":662,"top":663,"Vs":664,"Ts":665,"ent":666,"xvec":667,"lict":668,"fil":669,"fun":670,"eff":671,"Conflict":672,"with":673,"real_of_int":674,"def":675,"[],":676,"gent":677,"n_":678,"iv":679,"ig":680,"code":681,"approx":682,"al_":683,"Phi":684,"sa":685,"okup":686,"erm":687,"_set":688,"do":689,"lookup":690,"tra":691,"Ke":692,"res":693,"ule":694,">+":695,"aux":696,"arpo":697,"arpoon":698,"proj":699,"ity":700,"inverse":701,"deri":702,"vars":703,"com":704,"{(":705,"it_":706,"_comp":707,"pow":708,"key":709,"inv":710,"use":711,"distin":712,"n1":713,"Pa":714,"ph":715,"rd":716,"_con":717,"here":718,"Ne":719,"assms":720,"zs":721,"?\\<":722,"variant":723,"harpoon":724,"[\\<":725,"sn":726,"rhd":727,"Agent":728,"OF":729,"hile":730,"ull":731,"harpoonleft":732,"te_":733,"term":734,"x3":735,"ss_":736,"ber":737,"lock":738,"ue":739,"Colon":740,"'))":741,"mpty":742,"upharpoonleft":743,"<\\<":744,"integral":745,"]\\<^":746,"set_":747,"Pi":748,"Unit":749,"omega":750,"ord":751,"Vr":752,"Fun":753,"rep":754,"distinct":755,"max":756,"tl":757,"assu":758,"pmf":759,"init":760,"s0":761,"Main":762,"amond":763,"tive":764,"diamond":765,"bind":766,"wf":767,"seq":768,"&&&":769,"rea":770,"met":771,"high":772,"equiv":773,"};":774,"lack":775,"Ba":776,"ceq":777,"ia":778,"Black":779,"m2":780,"pair":781,"act":782,"_b":783,"Val":784,"ly":785,"hom":786,">]":787,"sim":788,"Invariant":789,"iff":790,"Key":791,"Sta":792,"lif":793,"bound":794,"Muts":795,"Fa":796,"ted_":797,"filter":798,"yn":799,"pri":800,"preceq":801,"CF":802,"ted":803,"Map":804,"k_":805,"l1":806,"roup":807,"sqsubseteq":808,"vd":809,")]":810,"ction":811,"kind":812,"action":813,"ort":814,"Th":815,"order":816,"cont":817,"im":818,"Lam":819,"restri":820,"st_":821,"return":822,"Ab":823,"List":824,"getWatch":825,"tom":826,"Node":827,"Sa":828,"nch":829,"branch":830,">?":831,"vel":832,"gra":833,"');":834,"Class":835,"acc":836,"gate":837,"fv":838,"where":839,"_class":840,"CFG":841,"map_":842,"out":843,"edges":844,"more":845,"line":846,"tm":847,"LE":848,"qs":849,"size":850,"du":851,"En":852,"getF":853,"lause":854,"bsup":855,"esup":856,"rypt":857,"OK":858,"coun":859,"empty":860,"ing_":861,"succ":862,"af":863,"blast":864,"intro":865,"M2":866,"ust":867,"bi":868,"inp":869,"sin":870,"bc":871,"box":872,"getC":873,"prop":874,"new":875,"('":876,"sl":877,"poly_":878,"finity":879,"tial":880,"ub":881,"Fault":882,"has_":883,"p2":884,"source":885,"ive":886,"Propa":887,"UnitPropa":888,"normal":889,"ser":890,"less":891,"pla":892,"State":893,"Crypt":894,"UnitPropagate":895,"le_":896,"bot":897,"|\\<":898,"Num":899,"v1":900,";;":901,"ence":902,"we":903,"target":904,"assume":905,"ctor":906,"arget":907,"rable":908,"M1":909,"minus":910,"_ta":911,"elem":912,"subset":913,"surd":914,"Term":915,"m1":916,"Sig":917,"at_":918,"os":919,"fer":920,"sor":921,"xb":922,"main":923,"Target":924,"rat":925,"tree":926,"e_":927,"chi":928,">[":929,"Aa":930,"infinity":931,"))\\<":932,"CN":933,"n2":934,"Norm":935,"step":936,"Lo":937,"powr":938,"Rep_":939,"monom":940,"dvd":941,"rel_":942,"rev":943,"v2":944,"Cs":945,"mula":946,"sourcenode":947,"ag":948,"_pmf":949,"prog":950,"exha":951,"Blacks":952,"exte":953,"add_":954,"exhaust":955,"metis":956,"guillemotleft":957,"lag":958,"xi":959,"nce":960,"While":961,"leftarrow":962,"log":963,"indu":964,"ym":965,"n0":966,"p1":967,"tain":968,"state_":969,"ho":970,"exhaustive":971,"TRel":972,"Cons":973,"graph":974,"mid":975,"matri":976,"run":977,"In1":978,"mult":979,"exhaustiveUnitPropagate":980,"pend":981,"fiel":982,"nat_":983,"move":984,"x2a":985,"Level":986,"ya":987,"b_":988,"ge_":989,"'')":990,"r1":991,"ed_":992,"param":993,"lead":994,"Sigma":995,"ceil":996,"r2":997,"squnion":998,"jo":999,"lon":1000,"asis":1001,"leadsto":1002,"dy":1003,"prefix":1004,"++":1005,"{\\<":1006,"heap":1007,"IN":1008,"ent_":1009,"enn":1010,"upda":1011,"sem":1012,"rac":1013,"De":1014,"reater":1015,"get_":1016,"PR":1017,"imp":1018,"rc":1019,"ennreal":1020,"ulti":1021,"ents":1022,"deriv":1023,"TH":1024,"Eq":1025,"col":1026,"targetnode":1027,"len":1028,"Flag":1029,"l2":1030,"sets":1031,"Nil":1032,"teral":1033,"^^":1034,"over":1035,"mod_":1036,"auth":1037,"inus":1038,"IP":1039,"tt":1040,"body":1041,"io":1042,"ball":1043,"::=":1044,"cn":1045,"ref":1046,"emeasure":1047,"Clist":1048,"ju":1049,"er_":1050,"const":1051,"ast":1052,">|":1053,"C0":1054,"id1":1055,"coeff":1056,"nth":1057,"suit":1058,"accC":1059,"diamondsuit":1060,"nsi":1061,"wa":1062,">);":1063,"npoly":1064,"([":1065,"ops":1066,"Number":1067,"sqinter":1068,"gm":1069,"uo":1070,"eP":1071,"extend":1072,"cmod":1073,"Abs":1074,"ize":1075,"Call":1076,"eV":1077,"vector":1078,"bdt":1079,"2_":1080,"OD":1081,"Down":1082,"Int":1083,"cases":1084,"xc":1085,"lab":1086,"in_":1087,"Neg":1088,"dro":1089,"u_":1090,"shr":1091,"enat":1092,"ominus":1093,"j_":1094,"a1":1095,"odot":1096,"CA":1097,"sum_":1098,"hence":1099,"mono":1100,"_tac":1101,"({":1102,")))))":1103,"getConflict":1104,")),":1105,"psilon":1106,"pv":1107,"obtain":1108,"Me":1109,"wel":1110,"isnpoly":1111,"fact":1112,"formula":1113,"ce_":1114,"less_":1115,"RE":1116,"ES1":1117,"prod":1118,"row_":1119,"sg":1120,"fp":1121,"isnpolyh":1122,"a2":1123,"free":1124,"md":1125,"br":1126,">#":1127,"stack":1128,"10":1129,"teri":1130,"St":1131,"exec":1132,"ic":1133,"ource":1134,"_all":1135,"clist":1136,"propto":1137,"bottom":1138,"T2":1139,"cos":1140,"update":1141,"x0":1142,"also":1143,"plain":1144,"inj":1145,"greater":1146,"ES2":1147,"keys":1148,"_co":1149,"wf_":1150,"-`":1151,"lcl":1152,"All":1153,"applyConflict":1154,"ect":1155,"thus":1156,"spl":1157,"Source":1158,"\"(":1159,"supp":1160,"unit":1161,"d1":1162,"group":1163,"f1":1164,"label":1165,"Non":1166,"jump":1167,"uu_":1168,"Explain":1169,"lift":1170,"Ar":1171,"moreover":1172,"applyExplain":1173,"SA":1174,"sc":1175,"of_nat":1176,"ally":1177,"To":1178,"(\\<^":1179,"net":1180,"sym":1181,"Rec":1182,"EQ":1183,"ation":1184,"UIP":1185,"arrow":1186,"Pol":1187,"kno":1188,"''.":1189,"Li":1190,"ray":1191,"sp":1192,"drop":1193,"Al":1194,"Ta":1195,">(\\<":1196,"force":1197,"[])":1198,"exe":1199,"Ps":1200,"longlongrightarrow":1201,"g1":1202,"obs":1203,"reac":1204,"tent":1205,"x1a":1206,"hp":1207,"')\\<":1208,">',":1209,"from_":1210,"Abs_":1211,"Ti":1212,"applyExplainUIP":1213,"CT":1214,"rith":1215,"midarrow":1216,"ose":1217,"getQ":1218,"arn":1219,"ine":1220,"[];":1221,"list_name":1222,"plusminus":1223,"Theta":1224,"gene":1225,"real_of_":1226,"nr":1227,"reg":1228,"partial":1229,"Comp":1230,"><":1231,"well":1232,"Rule":1233,"valid_edge":1234,"uous":1235,"inuous":1236,"sign":1237,"{};":1238,"authK":1239,"Prod":1240,"prod_":1241,"transfer":1242,"mod_type":1243,"uni":1244,"rator":1245,"ision":1246,"WB":1247,"ev":1248,"Says":1249,"mod_type_class":1250,"rat_":1251,"}\\<":1252,"db":1253,"Ent":1254,"Null":1255,"Entry":1256,"]))":1257,"serv":1258,"_integral":1259,"Inter":1260,"[^":1261,"fir":1262,"eq_":1263,"Learn":1264,"py":1265,"Nonce":1266,"gpv":1267,"ven":1268,"cat":1269,"carrier_":1270,"anal":1271,"ut_":1272,"applyLearn":1273,"ereal":1274,"_inv":1275,"f2":1276,"pec":1277,"sqrt":1278,"resh":1279,"[:":1280,"posi":1281,">)\\<":1282,"T1":1283,"cond":1284,"ds_":1285,"_col":1286,"prg":1287,"mat_":1288,"flow":1289,"cate":1290,"nodes":1291,"getConflictFlag":1292,"remove":1293,"[(":1294,"Im":1295,"/\\<^":1296,"vid1":1297,"Tr":1298,"restrict_":1299,"clause":1300,"list_all":1301,"valid":1302,"bl":1303,"Const":1304,"ggreater":1305,"Pair":1306,"Sk":1307,"tria":1308,"non":1309,"Bo":1310,"root":1311,"Load":1312,"repb":1313,"Literal":1314,"ideal":1315,"ata":1316,"analz":1317,"domain":1318,"{#":1319,"rup":1320,"...":1321,"round":1322,"Set":1323,"|`":1324,"dim":1325,"nt_":1326,"fg":1327,"Spy":1328,"abel":1329,"prime":1330,"ping":1331,"segm":1332,">''":1333,"HA":1334,"mage":1335,"disc":1336,"a_":1337,"continuous":1338,"ae":1339,"Or":1340,"return_":1341,"repa":1342,"_free":1343,"THE":1344,"OM":1345,"[^]":1346,"mk_":1347,"g2":1348,".\\<":1349,"elements":1350,"Skip":1351,"Label":1352,"ecide":1353,"nn":1354,"ces":1355,"dots":1356,"lless":1357,"];":1358,">,\\<":1359,"borel":1360,">}":1361,"s_of":1362,"val_":1363,"mul":1364,"bin":1365,"triangle":1366,"abs":1367,"'\"":1368,"cls":1369,"str":1370,"))\"":1371,"shrK":1372,"form":1373,"Und":1374,"As":1375,"New":1376,"dim_":1377,"_spmf":1378,"zation":1379,"rceil":1380,"redu":1381,"cbox":1382,"IF":1383,"cnj":1384,"done":1385,"bdd_":1386,"Max":1387,"ror":1388,">\"":1389,"subst_":1390,">')":1391,"ream":1392,"mer":1393,"ecided":1394,"Undecided":1395,"d2":1396,"!!":1397,"rite":1398,"fmdom":1399,"ft":1400,"App":1401,"simps":1402,"Id":1403,"rhs":1404,"_complex":1405,"_invar":1406,"lhd":1407,"TargetTerm":1408,"_aux":1409,"prob":1410,"guar":1411,"fine":1412,"_step":1413,"x21":1414,"}))":1415,"cess":1416,"pret":1417,"LL":1418,"lect":1419,"nti":1420,"Seq":1421,"_com":1422,"nid":1423,"stk":1424,"call":1425,"cur":1426,"rela":1427,"-\\<^":1428,"wp":1429,"che":1430,"b1":1431,"wea":1432,"matrix":1433,"ves":1434,"rep_":1435,"inf":1436,"wap":1437,"set_of":1438,"msg":1439,"Edge":1440,"Po":1441,"split":1442,"knows":1443,"params":1444,"final":1445,"lea":1446,"_op":1447,"induct":1448,"An":1449,"first":1450,"vative":1451,"valid_path":1452,"gebra":1453,"nx":1454,"epsilon":1455,"ight":1456,"from_nat":1457,"IM":1458,"Tgs":1459,"_cond":1460,"ck_":1461,"Ro":1462,"tax":1463,"ks":1464,"normalize":1465,"SOM":1466,"SOME":1467,"hable":1468,"head":1469,"Env":1470,">'.":1471,"closed":1472,"num":1473,"hook":1474,"lete":1475,"basis":1476,"ci":1477,"yntax":1478,"Group":1479,"']":1480,"x4":1481,"Root":1482,"diff":1483,"Cal":1484,"slp":1485,"mult_":1486,"tot":1487,"fast":1488,"S_":1489,"Op":1490,"Lt":1491,"servK":1492,"Min":1493,"SE":1494,"tegrable":1495,"][":1496,"_init":1497,"nsity":1498,"pred":1499,"Sq":1500,"gen":1501,"Par":1502,"re_":1503,"ric":1504,"mate":1505,"AA":1506,"ord_":1507,"_fun":1508,"count":1509,"ultimate":1510,"ultimately":1511,"'',":1512,"getCl":1513,"Match":1514,"error":1515,"term_":1516,"measurable":1517,"longlonglongrightarrow":1518,"bit":1519,"det":1520,"States":1521,"forme":1522,"sis":1523,"TP":1524,"Mapping":1525,"<:":1526,"total":1527,"Hom":1528,"rr":1529,"floata":1530,"floatarith":1531,"]\\<":1532,"poin":1533,"err":1534,"Tick":1535,"ipur":1536,"lan":1537,"_space":1538,"per":1539,"unit_":1540,"indi":1541,"CFG_":1542,"neg":1543,"cfg":1544,"cd":1545,"Syntax":1546,"bst":1547,"Co":1548,"while":1549,"posite":1550,"SK":1551,"}\"":1552,"Enter":1553,"not_":1554,"yc":1555,"i2":1556,"Init":1557,"TS":1558,"},":1559,"PE":1560,"rank":1561,"dip":1562,"ial":1563,"harac":1564,"b2":1565,"iel":1566,"value":1567,"sure":1568,"``":1569,"opposite":1570,"stream":1571,"Ob":1572,"t0":1573,"isim":1574,"vb":1575,"mute":1576,"stat":1577,"Net":1578,"summa":1579,"reachable":1580,"k1":1581,"i_":1582,"state_val":1583,"mption":1584,"Back":1585,"uck":1586,"Mk":1587,"dd":1588,"teps":1589,"''\\<":1590,"rupt":1591,"of_int":1592,"InvariantWatch":1593,"extra":1594,"evalua":1595,"Backjump":1596,"MOD":1597,"lc":1598,"triangleright":1599,"base":1600,"sing":1601,"Stuck":1602,"S1":1603,")[":1604,"fe":1605,"vc":1606,"sli":1607,"cc":1608,"Bk":1609,"punit":1610,"read":1611,"src":1612,"true":1613,"--":1614,"ii":1615,"repc":1616,"xt_":1617,"isFault":1618,"Poly":1619,"han":1620,"i1":1621,"($":1622,"Roots":1623,"nf":1624,"substa":1625,"joint":1626,"usubsta":1627,"matches":1628,"addr":1629,"Ring":1630,"sat":1631,"rn":1632,"tation":1633,"restrict":1634,"##":1635,"arc":1636,"segment":1637,"^\\<^":1638,"x5":1639,"homo":1640,"s_def":1641,"css":1642,"class":1643,"args":1644,"simp_all":1645,"no_":1646,"invar":1647,"inj_on":1648,"nexists":1649,"vec_":1650,"s3":1651,"fps_":1652,"zero_":1653,"sorted_":1654,"ield":1655,"led":1656,"mb":1657,"nomi":1658,"trace":1659,"llist":1660,"_image":1661,"ype":1662,"outs":1663,">=":1664,"Meth":1665,"F0":1666,"z2":1667,"Ifm":1668,"rom":1669,"_chain":1670,"sol":1671,"closed_":1672,"proc":1673,"logy":1674,"tail":1675,"pan":1676,"Exit":1677,"P1":1678,"ason":1679,"[[":1680,"wellforme":1681,"ax":1682,"Dom":1683,"continuous_on":1684,"proj_":1685,"cho":1686,"ess":1687,"getWatch1":1688,"])\\<":1689,"_map":1690,"))\\<^":1691,"fol":1692,"pare":1693,"xy":1694,"cong":1695,"the_":1696,"C2":1697,"DE":1698,"module":1699,"even":1700,"getWatch2":1701,"tance":1702,"distance":1703,"Of":1704,"field":1705,"weak":1706,"rime":1707,"]]":1708,"\"?":1709,"iG":1710,"be":1711,"error_free":1712,"VarB":1713,"Inv":1714,"Write":1715,"_t":1716,"_rel":1717,"thr":1718,"F2":1719,"upt_":1720,"fastforce":1721,"z1":1722,"In1l":1723,"wfp":1724,"lst":1725,"_list":1726,"k2":1727,"loc":1728,"rows":1729,"finis":1730,"Abrupt":1731,"mpl":1732,"Atom":1733,"{})":1734,"count_":1735,"If":1736,"wait":1737,"rec":1738,"Tree":1739,"execs":1740,"x22":1741,"Read":1742,"swap":1743,"xsa":1744,"-\\<":1745,"option":1746,"Pri":1747,"lborel":1748,"procs":1749,"domA":1750,"(=":1751,"topo":1752,"max_":1753,"Clause":1754,"monomial":1755,"mk":1756,"C1":1757,"bn":1758,"Ord":1759,"hs":1760,"F1":1761,"v0":1762,"able":1763,"choose":1764,"mdup":1765,"Cast":1766,"float":1767,"w2":1768,"mx":1769,"rong":1770,"remdup":1771,"bad":1772,"expr":1773,"_vars":1774,"_w":1775,"tops":1776,"ard":1777,"nds":1778,"_of_set":1779,"ses":1780,"{}\\<":1781,"ace":1782,"ucl":1783,"Add":1784,"lat":1785,"h1":1786,"Obj":1787,"{..<":1788,"\")":1789,"verts":1790,"on_":1791,"[]\\<":1792,"sequ":1793,",(":1794,"Up":1795,"w1":1796,"Inl":1797,"et_":1798,"||":1799,"q1":1800,"robdd_":1801,"concat":1802,"load":1803,"field_":1804,"g_":1805,"den":1806,"Charac":1807,"lNil":1808,"getWatchList":1809,"dest":1810,")).":1811,"rets":1812,"_int_":1813,"array":1814,"fined":1815,"note":1816,"Intv":1817,"Type":1818,"R2":1819,"'\\<^":1820,"contro":1821,"Throw":1822,"+)":1823,"ker":1824,"_inter":1825,"P2":1826,"post":1827,"tw":1828,"pli":1829,"nrm":1830,"tick":1831,"gso":1832,"zeta":1833,"omor":1834,"expr_":1835,"Return":1836,"matrix_":1837,"ram":1838,"height":1839,"trans_":1840,"map_of":1841,"Mo":1842,"ptr":1843,"Field":1844,"carrier_mat":1845,"poinca":1846,"ini":1847,"pse":1848,"S2":1849,"topology":1850,"e0":1851,"min_":1852,"suf":1853,"lang":1854,"Ct":1855,"Ga":1856,"Gu":1857,"Sec":1858,"dec":1859,"append":1860,"infinite":1861,"HI":1862,"parts":1863,"lim":1864,"Method":1865,"rule_tac":1866,"eval_":1867,"cor":1868,"terior":1869,"ND":1870,"LEA":1871,"Ca":1872,"fo":1873,"final_":1874,"rate":1875,"Lambda":1876,"TA":1877,"Den":1878,"upt_k":1879,"locals":1880,"termin":1881,"ame_":1882,"sha":1883,"app":1884,"utlast":1885,"LEAST":1886,"rep_list":1887,"Gro":1888,"ebi":1889,"topspace":1890,"erator":1891,"parti":1892,"produ":1893,"sum_list":1894,"y1":1895,"der":1896,"SyntaxN":1897,"**":1898,"cmp":1899,"real_of_float":1900,"ebius":1901,"throw":1902,"obj":1903,">>":1904,"within":1905,"Polynomi":1906,"!:":1907,"ger":1908,"erule":1909,"s_of_":1910,"action_":1911,"AE":1912,"C_":1913,"compE":1914,"finally":1915,"moebius":1916,"borel_":1917,"slice_":1918,"net_":1919,"g_p":1920,"gue":1921,"mar":1922,"block":1923,"brk":1924,"adj":1925,"HR":1926,"Characteri":1927,"curre":1928,"LT":1929,"pth":1930,"SU":1931,"Characterization":1932,"hull":1933,"LO":1934,"hy":1935,"proj2":1936,"cop":1937,"DO":1938,"rt_":1939,"check":1940,"butlast":1941,"q2":1942,"cast":1943,"obc":1944,"Ball":1945,"prefixTo":1946,"sistent":1947,"vl":1948,"WHI":1949,"WHILE":1950,"From":1951,"Inr":1952,"assign":1953,"control_":1954,"vi":1955,"mega":1956,"Omega":1957,"_eq":1958,"sorted":1959,"uss_":1960,"\"(\\<":1961,"ors":1962,"leftrightarrow":1963,"iso":1964,"Reason":1965,"FV":1966,"dim_row":1967,"off":1968,"temp":1969,"nec":1970,"tive_":1971,"int_":1972,"SourceTerm":1973,"per_":1974,"stra":1975,"Gromo":1976,"steps":1977,"BackjumpLevel":1978,"m_set":1979,"oth":1980,"Pos":1981,"THEN":1982,"metric":1983,"In1r":1984,"fl":1985,"cept":1986,"STCal":1987,"Err":1988,"summands":1989,"aug_p":1990,"leb":1991,"aug_pm_set":1992,"integrable":1993,"lebes":1994,"rp":1995,"verti":1996,")));":1997,"lebesgue":1998,"path_image":1999,"lnth":2000,"_deri":2001,"rame":2002,"initial":2003,"Anno":2004,"enum":2005,"iota":2006,"lift_":2007,"P_":2008,"delete":2009,"mes":2010,"Stra":2011,"to_nat":2012,"ClassMain":2013,"thread":2014,"y2":2015,"Pred":2016,"fresh":2017,"udo":2018,"lp":2019,"disco":2020,"A1":2021,"form_":2022,"'}":2023,"dim_col":2024,"Sup":2025,"orda":2026,"ground":2027,"remdups":2028,"borel_measurable":2029,"merge":2030,"getBackjumpLevel":2031,"table":2032,"rity":2033,"h2":2034,"Basis":2035,"tep_":2036,"Dag":2037,"d_coeff":2038,"hookrightarrow":2039,"ka":2040,"usubstapp":2041,"1_":2042,"gcd":2043,"disj":2044,"ipurge_":2045,"df":2046,"zip":2047,"Proc":2048,"upd":2049,"_sli":2050,"INT":2051,"Fin":2052,"sk":2053,"flow0":2054,"lceil":2055,"Array":2056,"conve":2057,"cball":2058,"prefixToLevel":2059,"interpre":2060,"hnf":2061,"Msg":2062,">([":2063,"nc":2064,"perm":2065,"sf":2066,"_m":2067,"uation":2068,"interpret_":2069,"pseudo":2070,"pos":2071,"bang":2072,"Collect":2073,"guards":2074,">)))":2075,"AND":2076,"fds_":2077,"upd_":2078,":]":2079,"_slice":2080,"lation":2081,"final_thread":2082,"actions_":2083,"ary":2084,"Not":2085,"que":2086,"foldl":2087,"cms":2088,"Fvar":2089,"red_":2090,"TQ":2091,"'''":2092,"input":2093,"=\\<^":2094,"_sing":2095,"next_":2096,"RN":2097,"_operator":2098,"is_zero_":2099,">/":2100,"msgs":2101,"HO":2102,"AL":2103,"chan":2104,"u1":2105,"bij":2106,"smult":2107,"RD":2108,"asx":2109,"_pt":2110,"repli":2111,"pending":2112,"Ra":2113,"resu":2114,"Point":2115,"ipurge_tr":2116,"sert":2117,"count_space":2118,"Otimes":2119,"R1":2120,"_deg":2121,"TY":2122,"qu":2123,"Obs":2124,"ar_":2125,"JV":2126,"JVM":2127,"Deri":2128,"').":2129,"'),":2130,"vent":2131,"_l":2132,"Deny":2133,"NT":2134,"TU":2135,"spmf":2136,"or_":2137,"strong":2138,"outp":2139,"assumption":2140,"simple_":2141,"other":2142,"ner":2143,"pes":2144,"terms":2145,"T_":2146,"face":2147,"fset":2148,"evs4":2149,"TYPE":2150,"rec_":2151,"valuation":2152,"Ctxt_":2153,"bij_":2154,"Subst":2155,"llength":2156,"symmetric":2157,"Iod":2158,"sic":2159,"++\\<^":2160,">'\\<":2161,"_iarray":2162,"Res":2163,"Pl":2164,"ring":2165,"frac":2166,"==":2167,"are":2168,"locks":2169,"F_":2170,"pre_":2171,"PROB":2172,"Plus":2173,"L_":2174,"an_":2175,"rand":2176,"_bet":2177,"replicate":2178,"RETU":2179,"RETURN":2180,"Vars":2181,"igh":2182,"exec_":2183,"sr":2184,"Squnion":2185,"reduce":2186,"bisim":2187,"pf":2188,"leve":2189,"labels":2190,"Frame":2191,"inds":2192,"part":2193,"consistent":2194,"_rep":2195,"_clo":2196,"bu":2197,"vation":2198,"encode":2199,"at_top":2200,"PP":2201,"num_":2202,"ures":2203,"discove":2204,"HPair":2205,"row_length":2206,">';":2207,"sgn":2208,"Fs":2209,"t_def":2210,"dow":2211,"sition":2212,"span":2213,"genera":2214,"set_mset":2215,"Asm":2216,"inst":2217,"op_":2218,"pseudo_":2219,"TWB":2220,"});":2221,"AsmNo":2222,"rees":2223,"mage_":2224,"rat_poly_":2225,"ure":2226,"trans_fun":2227,"extract":2228,"_derivative":2229,"Uni":2230,"pj":2231,"aGroup":2232,">[],":2233,"Cn":2234,"(((":2235,"Au":2236,"Bod":2237,"Com":2238,"tri":2239,"adjoint":2240,"suffix":2241,"Body":2242,"bal":2243,"w_":2244,"ra_":2245,"hed":2246,"'';":2247,"spr_":2248,"TVarB":2249,"_exp":2250,"dev":2251,"asso":2252,"=>":2253,"reen":2254,"Cond":2255,"Fil":2256,"H1":2257,"new_":2258,"put":2259,"CARD":2260,"consts":2261,"emb":2262,"discovered":2263,"Xa":2264,"polic":2265,"A_of":2266,"extractFrame":2267,"coprime":2268,"evaluate":2269,"degreen":2270,"word":2271,"current":2272,"arcs":2273,"nobdt":2274,"12":2275,"Strat":2276,"level":2277,"colum":2278,"RIV":2279,"fun_":2280,"Keys":2281,"DERIV":2282,"hops":2283,"Se":2284,"carrier_vec":2285,"is_zero_row_":2286,"_po":2287,"wt":2288,"M_init":2289,"h0":2290,"bove":2291,"rap":2292,"Mkt":2293,"Algebra":2294,"Mp":2295,"is_zero_row_upt_k":2296,"eucl":2297,"ProcCFG":2298,"init_":2299,"G_":2300,"(=)":2301,"].":2302,"tls":2303,"to_complex":2304,"ycle":2305,"ld":2306,"algebra":2307,"null":2308,"He":2309,"pat":2310,"ant":2311,"ot_":2312,"lass_":2313,"fail":2314,"{(\\<":2315,"<..":2316,"strip":2317,"lists":2318,"conj":2319,"is_c":2320,"xcp":2321,"[$":2322,"orbdt":2323,"ff":2324,"Sto":2325,"Rs":2326,"#}":2327,"dfa":2328,"ken":2329,"of_complex":2330,"start":2331,"REA":2332,"Mod":2333,"region":2334,"closure":2335,"depth":2336,"lb":2337,"ect_":2338,"iface":2339,"MethodMain":2340,"Q_":2341,"Def":2342,"Pbij_":2343,"#:":2344,"SP":2345,"density":2346,"Ticket":2347,"rian":2348,"Prim":2349,"above":2350,"list_all2":2351,"compon":2352,"rat_poly_times":2353,"Proper_":2354,"elim":2355,"Store":2356,"stl":2357,"test":2358,"lead_coeff":2359,"none":2360,"bangRel":2361,"multi":2362,"oid":2363,"HRB":2364,"HRB_slice":2365,"cat_":2366,"varian":2367,"tial_":2368,"cake":2369,"partition":2370,"false":2371,"ew":2372,"FW":2373,"Vbl":2374,"interpret_floatarith":2375,"ple":2376,"ded":2377,"inc":2378,"'[":2379,"OrWrite":2380,"ReadOrWrite":2381,"vp":2382,"s_aux":2383,"Oc":2384,"nP":2385,"net_tree":2386,"prx":2387,"cline":2388,"u2":2389,"A2":2390,"ach":2391,"kb":2392,"MI":2393,"tour":2394,"ray_":2395,"Fill":2396,"contour":2397,"_ips":2398,"Less":2399,"lub":2400,"))}":2401,"sip":2402,"Polynomial":2403,"rest":2404,"wal":2405,"_density":2406,"Upsilon":2407,"NG":2408,"connec":2409,"find_":2410,"stock_":2411,"DB":2412,"nsion":2413,"abs_":2414,"derivative":2415,"extended_":2416,"code1":2417,"DIM":2418,"bop":2419,"tn":2420,"_const":2421,"xp":2422,"_imp":2423,"kinds":2424,"upcake":2425,"Left":2426,"arg":2427,"Exp":2428,"DenyAll":2429,"stock_measure":2430,"LOW":2431,"literal":2432,"actions_ok":2433,"convex":2434,"Heap":2435,"evs3":2436,"Low":2437,"rb":2438,"entr":2439,"LENG":2440,"LENGTH":2441,"distr":2442,"unde":2443,"shi":2444,"One":2445,"rnort":2446,"Inf":2447,"{..":2448,"Go":2449,"on_c":2450,"Dec":2451,"\"...":2452,"bounded":2453,"tp":2454,"finite_":2455,"extTA":2456,"sion":2457,"_indu":2458,"bs1":2459,"lho":2460,"phis":2461,"omorphi":2462,"conver":2463,"pseudo_proj_":2464,"states":2465,"At":2466,"lholed":2467,"ard_":2468,"11":2469,"Uniq":2470,"inf_":2471,"sqsubset":2472,"insert_":2473,"indicat_":2474,"indicat_real":2475,"B1":2476,"_se":2477,"strict_":2478,"ular":2479,"output_":2480,"Literals":2481,"usubstappp":2482,"content":2483,"Gauss_":2484,"fvs":2485,"Jorda":2486,"map_poly":2487,"stable":2488,"Gauss_Jorda":2489,"bez":2490,"B2":2491,"id2":2492,"orts":2493,"$$:=":2494,"Lists":2495,"undefined":2496,"tens":2497,"wri":2498,"cator":2499,"shadow":2500,"wellformed":2501,"radi":2502,"bool":2503,"image_":2504,"cod":2505,"Ctxt_Body":2506,"ution":2507,"als":2508,"bitra":2509,"_A":2510,"token":2511,"InvariantWatchLists":2512,"hb":2513,"_single":2514,"*)":2515,"__":2516,"tence":2517,"lect_":2518,"}}":2519,"syn":2520,"effect":2521,"evs2":2522,"Interpret":2523,":\\<":2524,"Chi":2525,"_block":2526,"atoms":2527,"dag":2528,"CFG_Interpret":2529,"LCons":2530,"unit_disc":2531,"extends":2532,"Leaf":2533,")])":2534,"net_tree_ips":2535,"_mult":2536,"lnort":2537,"Is":2538,"Free":2539,"linepath":2540,"openin":2541,"view":2542,"tains":2543,"cl_":2544,"har":2545,"product_":2546,"fmlookup":2547,"subtopology":2548,"divide":2549,"FO":2550,"fold_":2551,"der_":2552,"bitrary":2553,"nths":2554,"lm":2555,"_redu":2556,"Nodes":2557,"Nom":2558,"0_":2559,"hash":2560,"uhnf":2561,"Gromov_":2562,"\"]":2563,"IT":2564,"removeFalse":2565,"linear":2566,"removeFalseLiterals":2567,"fmrestrict_":2568,"arr":2569,"minarc":2570,"_coeff":2571,"lad":2572,"induction":2573,"indicator":2574,"clock":2575,"list_of_":2576,"poincare_":2577,"mxs":2578,"_cl":2579,"Bound":2580,"_to_":2581,"cible":2582,"Bool":2583,"wit":2584,"odd":2585,"32":2586,"measure_pmf":2587,"compa":2588,"point":2589,"frs":2590,"meth":2591,"))))))))":2592,"poly_deg":2593,"_match":2594,"recf":2595,"binp":2596,"es_":2597,"iset":2598,"Form":2599,"Ze":2600,"inv_":2601,"JVMCFG_Interpret":2602,"verte":2603,"vable":2604,"finish":2605,"type_":2606,"_tv":2607,"that":2608,"NA":2609,"ere":2610,"reach":2611,"@\\<^":2612,"Lxy":2613,"CC":2614,"CFG_node":2615,"number":2616,"Decision":2617,"sy":2618,"two":2619,"bounded_":2620,"restrict_top":2621,"power":2622,"bval":2623,"<..<":2624,"sequen":2625,"case_":2626,"FromTo":2627,"Pbij_extends":2628,"Expr":2629,"permute":2630,"_var":2631,"policy":2632,"con_comp":2633,"yvec":2634,"left_":2635,"expr_sem":2636,"tori":2637,"Zero":2638,"to_iarray":2639,"_inde":2640,"SWB":2641,"_proc":2642,"ush":2643,"exp_":2644,"')))":2645,"kbp":2646,"dbm_":2647,"jkbp":2648,"float_":2649,"BC":2650,"sqn":2651,"column":2652,"pres":2653,"as_":2654,"order_":2655,"Dis":2656,"rev_":2657,"sm2":2658,"ah":2659,"mulation":2660,"x32":2661,"lash":2662,"oslash":2663,"mini":2664,"ea":2665,"agree":2666,">)\\<^":2667,"xd":2668,"event":2669,"shadows_":2670,"Exit_":2671,"s_mset":2672,"logy_":2673,"impl":2674,"RS":2675,":\"":2676,"Ds":2677,"x31":2678,"venv":2679,"Mem":2680,"Has":2681,"gen_":2682,"ecl":2683,"Ticket_":2684,"bet":2685,"gt":2686,"_of_list":2687,"mutex":2688,"allow":2689,"cpt":2690,"ipp":2691,"cep":2692,"LINT":2693,"Addr":2694,"GREA":2695,"GREAT":2696,"wrap":2697,"Stop":2698,"M3":2699,"Ticket_mutex":2700,"sel":2701,"Loc":2702,"fmrestrict_set":2703,"ec_":2704,"sequenti":2705,"iff_":2706,"iterate":2707,"rename":2708,"factor":2709,"line_integral":2710,"lete_":2711,"=\"":2712,"tes":2713,"list2":2714,"OrdSum":2715,"_src":2716,"sequentially":2717,"reducible":2718,"ODE":2719,"actori":2720,"types":2721,"comb":2722,"')\\<^":2723,"intra_":2724,"read_":2725,"g0":2726,"L1":2727,"ja":2728,"Partial_":2729,"wrt":2730,"Exec_":2731,"SRel":2732,"np":2733,"_a":2734,"vo":2735,"alist":2736,"root_":2737,"Let":2738,"circle":2739,"pderiv":2740,"codeCons":2741,"]);":2742,"psubst":2743,">-":2744,"calle":2745,"bdy":2746,"Auth":2747,"ell_":2748,"EST":2749,"_S":2750,"state_measure":2751,"$$}":2752,"hookleftarrow":2753,"empty_":2754,"mode":2755,"alpha_":2756,"_mat":2757,"Last":2758,"Intg":2759,"ween":2760,"only":2761,"Top":2762,"Model":2763,"Ind":2764,"set_pmf":2765,"Path":2766,"Step":2767,"comm":2768,"ort_":2769,"pub":2770,"mems":2771,"xiom":2772,"ni":2773,"SucF":2774,"prod_list":2775,"SQ":2776,"_sy":2777,"isnorm":2778,"erH":2779,"exI":2780,"trace_":2781,"Entry_":2782,"SucFbd":2783,"translation":2784,"get_return_":2785,"s_to_":2786,"homology_":2787,"vertices":2788,"expec":2789,"sec":2790,"dim_vec":2791,"bs2":2792,"addi":2793,"bv":2794,"process":2795,"rat_of_int":2796,"send":2797,";\\<":2798,"contains":2799,"ista":2800,"GREATEST":2801,"join":2802,"NoMsg":2803,"_term":2804,"diamondop":2805,"expectation":2806,"Action":2807,"get_return_edges":2808,"irreducible":2809,"homology_group":2810,"_bound":2811,"ID":2812,"BS":2813,"clar":2814,"Catch":2815,"urve":2816,"Mat":2817,"of_int_":2818,"add_mset":2819,"on_curve":2820,"interpret":2821,"_Entry_":2822,"jkbpC":2823,"bexp":2824,"ix":2825,"d3":2826,"return_pmf":2827,"Length":2828,"Ref":2829,"hol":2830,"Exec_Comp":2831,")))\\<":2832,"NB":2833,"free_vars":2834,"z0":2835,"its":2836,"s_list":2837,"Bran":2838,"Branch":2839,"alt":2840,"failures":2841,"pseudo_proj_True":2842,"isi":2843,"ify":2844,"lv":2845,"unique":2846,"subgroup":2847,"clarsimp":2848,"Pr":2849,"intra_kind":2850,"codeNil":2851,"Object":2852,"allo":2853,"DF":2854,"Sigma_":2855,"y0":2856,"proj2_":2857,"IEdge":2858,"RM":2859,"vector_derivative":2860,"authKa":2861,")+":2862,"Act":2863,"distri":2864,"fls_":2865,"evaluate_":2866,"_syn":2867,"j1":2868,"ts2":2869,"nhi":2870,"Allow":2871,"wellformed_":2872,"Ch":2873,"proper":2874,"buf":2875,"(<\\<":2876,"normalized_":2877,"PRO":2878,"FF":2879,"derivable":2880,"relation":2881,"Guar":2882,"differe":2883,"offs_":2884,"contour_integral":2885,"_sets":2886,"decision":2887,"([],":2888,"arbitrary":2889,"Gauss_Jordan":2890,"interior":2891,"Mul":2892,"dgra":2893,"SPR":2894,"assert":2895,"spec":2896,"AsmNoReadOrWrite":2897,"filled":2898,"MS":2899,"SG":2900,"rk":2901,"#>":2902,"lhs":2903,"txs":2904,"ull_":2905,"actorization":2906,"assn":2907,"return_node":2908,"except":2909,"_Exit_":2910,"Sigma_Algebra":2911,"ladder_":2912,"KK":2913,"s_eq":2914,"run_":2915,"nm":2916,"ries":2917,"Tran":2918,"diag":2919,"prems":2920,"entry_":2921,"my":2922,"x6":2923,"dst":2924,"D_":2925,"interval_":2926,"dbm_entry_":2927,"dims":2928,"same_":2929,"Que":2930,"Queue":2931,"ao":2932,"elts":2933,"prv":2934,"Matri":2935,"nhip":2936,"Fresh":2937,"[\\<^":2938,"tan":2939,"trm_":2940,"stop":2941,"vertex_":2942,"isDERIV":2943,"omorphic_":2944,"dbm_entry_val":2945,"component_":2946,"CO":2947,"cone":2948,"trm":2949,"rl":2950,"bij_bet":2951,"array_":2952,"SAT":2953,"generate_":2954,"tree_":2955,"dm":2956,"aaa":2957,"vv":2958,"gri":2959,"monom_mult":2960,"output_fun":2961,"mn":2962,"tmp":2963,"rel_in":2964,"ta_":2965,"start_":2966,"TI":2967,"ction_":2968,"_cond_exp":2969,"obj_":2970,"nb":2971,"xaa":2972,"out_":2973,"affine":2974,"evs5":2975,"success":2976,"_to":2977,"j2":2978,"Chain":2979,"finished":2980,"Cp":2981,"qua":2982,"bdd":2983,"list2FW":2984,"SATFlag":2985,"getSATFlag":2986,"list2FWpolicy":2987,"_inc":2988,"ition":2989,"Empty":2990,"ration":2991,"e3":2992,"L2":2993,"pi1":2994,"gr":2995,"lRes":2996,"_compon":2997,"ced_":2998,"split_":2999,"ory":3000,"Guard":3001,"_in_":3002,"IArray":3003,"buffer":3004,">+)":3005,"_ivl":3006,"@@":3007,"confi":3008,"EL":3009,"Push":3010,"commute":3011,"multiset":3012,"basic":3013,"phere":3014,"rm":3015,"ov":3016,"proot":3017,"tic":3018,"bij_betw":3019,"Do":3020,"_car":3021,"teger":3022,"parent_":3023,"Matrix":3024,"Sqinter":3025,"pi2":3026,"good":3027,"inf_llist":3028,"righ":3029,"ummy":3030,"':":3031,"manti":3032,"sound":3033,"maxi":3034,"upd_cs":3035,"qi":3036,"ise":3037,"to_set":3038,"_integrable":3039,"I2":3040,"s_cf":3041,"Derivation":3042,"pect":3043,"valu":3044,"_pri":3045,"CEdge":3046,"ten":3047,"ntiable":3048,"_cong":3049,"change":3050,"differentiable":3051,"ross_":3052,"IMP":3053,"compose":3054,"Sing":3055,"_rev":3056,"Reach":3057,">!":3058,"getReason":3059,"dma":3060,"Pow":3061,"top_of_set":3062,"ly_":3063,"SS":3064,"frees":3065,"))))))":3066,")],":3067,"refl":3068,"_n":3069,"ELSE":3070,"dle":3071,"has_integral":3072,"is_cupcake":3073,"_cvec":3074,"{-":3075,"v3":3076,"lesssim":3077,"circline":3078,"coef":3079,"ample":3080,"xss":3081,"side":3082,"netg":3083,"Arr":3084,"letion":3085,"cr":3086,"no1":3087,"ensor":3088,"const_":3089,"lds":3090,"sem_":3091,"Tensor":3092,"($*":3093,"_char":3094,"[?":3095,"dl":3096,"define":3097,"les":3098,"envObs":3099,"rel_interior":3100,"->":3101,"eventu":3102,"typeof_":3103,"_fact":3104,"meq":3105,"HOs":3106,"used":3107,"fw":3108,"ode":3109,"mHom":3110,"ret":3111,"3_":3112,"Times":3113,"ff_":3114,"Sub":3115,"z_":3116,"first_src":3117,"first_srcNet":3118,"MA":3119,"RVal":3120,"opp":3121,"dummy":3122,"Pre":3123,"connected":3124,"simplex":3125,"random":3126,">*\\<^":3127,"matrix_to_iarray":3128,">((":3129,"evalB":3130,"ipurge":3131,"_of_pair":3132,"Rerr":3133,"LIS":3134,"swaps":3135,"Rep_G":3136,")})":3137,"ache":3138,"]}":3139,"execute":3140,"strong_term":3141,"strong_term_class":3142,"_dest":3143,"pre_strong_term_class":3144,"simeq":3145,"InvariantWatches":3146,"Da":3147,"_carrier":3148,"sds":3149,"Trans":3150,"moebius_pt":3151,"norbdt":3152,"parent_node":3153,"Rb":3154,"cted_":3155,"cols":3156,">:":3157,"jview":3158,"abv":3159,"AB":3160,"XX":3161,"sible":3162,"back":3163,"field_class":3164,"onp":3165,"tmt":3166,"RP":3167,"saf":3168,"mit_":3169,"alpha_rp":3170,"Stmt":3171,"polyn_":3172,"least":3173,"ordered":3174,"EX":3175,"mr":3176,"_tail":3177,"GG":3178,"RT":3179,"fid1":3180,"safe_":3181,">),":3182,"scru":3183,"ell_field_class":3184,"term_sem":3185,"codea":3186,"Put":3187,"num_params":3188,"_is_":3189,"c_pair":3190,"automat":3191,"automaton":3192,"PEC":3193,"LIST":3194,"first_dest":3195,"scrut":3196,"first_destNet":3197,"scal":3198,"opnet":3199,"parallel_p":3200,"heck":3201,"add_set":3202,"netgmap":3203,"+\\<^":3204,"abla":3205,"transform":3206,"right_":3207,"_conv":3208,"Sts":3209,"lu":3210,"qq":3211,"Cache":3212,"_impl":3213,"Cachera":3214,"game_":3215,"subformula":3216,"LM":3217,"symKeys":3218,"Gromov_product_":3219,"vn":3220,"_fa":3221,"I1":3222,"exis":3223,"lit":3224,"tickFree":3225,"assertLiteral":3226,"at_right":3227,"Eg1":3228,"rect":3229,"lass_type":3230,"_spl":3231,"nabla":3232,"mantics":3233,"polyn_expr":3234,"fmap":3235,"pol_coeff":3236,"Cat":3237,"doteq":3238,"proots_":3239,"Option":3240,"conf":3241,"ou":3242,"DFS":3243,"evsf":3244,"_rev_":3245,"existence":3246,"SPEC":3247,"ipp_cond":3248,"grid":3249,"')\"":3250,"(+)":3251,"gds_":3252,"_comb":3253,"weight":3254,"related_":3255,"glo":3256,"|\\<^":3257,"IH":3258,"InvariantUniq":3259,"frule":3260,"compE1":3261,"real_cond_exp":3262,"at_left":3263,"On":3264,"eval_abv":3265,"char":3266,"OR":3267,"Ports":3268,"r3":3269,"_into":3270,"{},":3271,"Gromov_product_at":3272,"cts":3273,"_bi":3274,"radical":3275,"h3":3276,"compP":3277,"image_mset":3278,"simple":3279,"select":3280,"Contra":3281,"pathstart":3282,"Cl":3283,"//":3284,"TR":3285,"permutes":3286,"vid2":3287,"ner_":3288,"disjnt":3289,"addition":3290,"El":3291,"OO":3292,"appli":3293,"xe":3294,"stateA":3295,"Fn":3296,"safe":3297,"(*":3298,"G1":3299,"_run":3300,"mdl":3301,"ycle_":3302,"D1":3303,"js":3304,"cl_ecl":3305,"dsn":3306,"wo":3307,"check_single":3308,"leaves":3309,"+++":3310,"Xd":3311,"Ms":3312,"getConflictClause":3313,"For":3314,"01":3315,"Kas":3316,"actions":3317,"ges":3318,"vars_":3319,"append_":3320,"ring_":3321,"G2":3322,"plic":3323,"chmid":3324,"subst_domain":3325,"imply":3326,"Putfield":3327,"squa":3328,"spr_jview":3329,"delete_":3330,"TL":3331,"all_":3332,"pathfinish":3333,"real_":3334,"sequence":3335,"Out":3336,"subterms":3337,"amber":3338,"approx_":3339,"existence_ivl":3340,"{$$}":3341,"addition_set":3342,"X1":3343,"wlp":3344,"LD":3345,"_completion":3346,"DFS_invar":3347,"Na":3348,"cp":3349,"pdev":3350,"map_pmf":3351,"exprs":3352,"lr":3353,"compile":3354,"iM":3355,"_clt":3356,"_cltn2":3357,"merge_":3358,"proj2_rep":3359,"with_":3360,"nsqn":3361,"LeftDerivation":3362,"undef":3363,"_simps":3364,"asset":3365,"N1":3366,"game_sem":3367,"00":3368,"cross_":3369,"gds":3370,"expa":3371,"mpt":3372,"strict":3373,"division":3374,"thread_":3375,"is_none":3376,"ter_":3377,"stand":3378,"generic":3379,"decl":3380,"nsphere":3381,"Wls":3382,"nfa":3383,"#\\<^":3384,"_of_return_node":3385,"dgrad_":3386,"call_of_return_node":3387,"Red_":3388,"Rval":3389,"hen":3390,"Bin":3391,"gc":3392,"rf":3393,"ts_":3394,"ival":3395,">)\"":3396,"sed":3397,"poincare":3398,"sink":3399,")(":3400,"oke":3401,"_closure":3402,"sn2":3403,"stream_space":3404,"Bisim":3405,"subexprs":3406,"member":3407,"localState":3408,"Final":3409,"sb":3410,"ei":3411,"lean":3412,"[:-":3413,"heap_":3414,"assoc":3415,"jm":3416,"lincomb":3417,"_cir":3418,"Itm":3419,"sen":3420,"ced":3421,"idean":3422,"x7":3423,"iddle":3424,"ntier":3425,"Nat":3426,"LNil":3427,"Us":3428,"req":3429,"gment":3430,"wset":3431,"Complex":3432,"wind":3433,"mutation":3434,"store":3435,"upto":3436,"dfs":3437,"twiddle":3438,"subset_":3439,"allocate":3440,">([],":3441,"round_":3442,"ChiRel":3443,"#[[":3444,"parse":3445,"Greater":3446,"ary_":3447,"loc_":3448,")])\\<":3449,"update_":3450,"{?":3451,"noul":3452,"noulli":3453,"tid":3454,"dr":3455,"knd":3456,"bernoulli":3457,"rown":3458,"succs":3459,"_pos":3460,"poly_rel":3461,"E2":3462,"word_":3463,"_ref":3464,"dual":3465,"get_proc":3466,"stileturn":3467,"SUP":3468,"idx":3469,"Decl":3470,"index_":3471,"anno":3472,"tLast":3473,"precond":3474,"common":3475,"Ext":3476,"ress":3477,"masc":3478,"uline":3479,"ordmasc":3480,"ordmasculine":3481,"mem_":3482,"mt":3483,"statT":3484,"list_rel":3485,"const_list":3486,"ing_number":3487,"geom":3488,"64":3489,"Order":3490,"ful":3491,"axis":3492,"natur":3493,"case_tac":3494,"applyUnitPropagate":3495,"winding_number":3496,"valid_node":3497,"mask":3498,"_decomp":3499,"ves_":3500,"transfers":3501,"E1":3502,"frown":3503,"Edges":3504,"Hash":3505,"Defs":3506,"induced_":3507,"shift":3508,"_ind":3509,"pn":3510,"holomorphic_":3511,"one_chain":3512,"ception":3513,"ltake":3514,"InvariantVars":3515,"===>":3516,"trg":3517,"tend":3518,"config":3519,"latti":3520,"_cycle":3521,"lmap":3522,"minine":3523,"ordfe":3524,"ordfeminine":3525,"digraph":3526,"walk":3527,"yb":3528,"val_process":3529,"element_":3530,"limit":3531,"conv":3532,"Sup_":3533,"multiplic":3534,"dead":3535,"paths":3536,"progress":3537,">?\\<":3538,"equal":3539,"IF2":3540,"cfs":3541,"typeof_addr":3542,"16":3543,"bezout":3544,")};":3545,"HAInit":3546,"flows":3547,"aux_":3548,"chmidt_":3549,"R3":3550,"ham":3551,"b_e":3552,"Star":3553,"SD":3554,"Exception":3555,"Flds":3556,"control_var":3557,"write_":3558,"Mon":3559,"\"],":3560,"strips":3561,"make":3562,"Invoke":3563,"ek":3564,"token_run":3565,">@":3566,"_type":3567,"game":3568,"cation":3569,"R_":3570,"component_of_":3571,"one_":3572,"foldr":3573,"Cod":3574,"fgs":3575,"'));":3576,"ic_":3577,"_ex":3578,"real_of_rat":3579,"apply_cltn2":3580,"{#}":3581,"ound":3582,"rota":3583,"([(":3584,"matur":3585,"_factorization":3586,"_env":3587,"uminus":3588,"..}":3589,"BIT":3590,"EP":3591,"nort":3592,"Ocl":3593,"child":3594,"ctxt_":3595,"Any":3596,"join_":3597,"denote":3598,"stake":3599,"Diff":3600,"omorphis":3601,"Bot":3602,"single":3603,"pairs":3604,"Modal":3605,"aexp":3606,"sch":3607,"MST":3608,"Exists":3609,"c_snd":3610,"multiplicity":3611,"smap":3612,"pns":3613,"ract":3614,"mset_":3615,"rely":3616,"IF1":3617,"slice_edges":3618,"Ka":3619,"dens_":3620,"hn":3621,"holomorphic_on":3622,"_ext":3623,"@[":3624,"data":3625,"adds":3626,"]:":3627,"pos_":3628,"''))":3629,"Proper_Roots":3630,"peval":3631,"_ca":3632,"Base":3633,"component_of_term":3634,"intv":3635,"succ_":3636,"setinter":3637,"ident":3638,"dens_ctxt_":3639,"PROG":3640,"Use":3641,"conv_":3642,"weak_":3643,"quo":3644,"nat_rel":3645,"Fst":3646,"map2":3647,"Reg":3648,"brn":3649,"assm":3650,"d_def":3651,"dt":3652,"transition":3653,"'])":3654,"cnt":3655,"_fset":3656,"x2b":3657,"pq":3658,"\"{":3659,"Lfilled":3660,"NF":3661,"offs":3662,"dens_ctxt_measure":3663,"Ter":3664,"unfol":3665,")))));":3666,"fds_nth":3667,"geom_proc":3668,"mk_graph":3669,"x42":3670,"hyp2":3671,"primi":3672,"variants":3673,"ml":3674,"events":3675,"TT":3676,"variable":3677,"Proper_Edges":3678,"monic":3679,"tensor_":3680,"_pair":3681,"subdegree":3682,"enc":3683,"cf1":3684,"ifex":3685,"l0":3686,"))),":3687,"V0":3688,"subs":3689,"object_":3690,"l_sem":3691,"F2set":3692,"level_":3693,"currentLevel":3694,"_incident":3695,"osition":3696,"oalist":3697,"cycle":3698,"DEF":3699,"tag":3700,"interval":3701,"_poly":3702,"((-":3703,"spr":3704,"([]":3705,"element":3706,"defined":3707,"nume":3708,"compare":3709,"countable":3710,"x41":3711,"know":3712,"fmrel":3713,"codomain":3714,"PM":3715,"fml_sem":3716,"ppt":3717,"usubstappt":3718,"res_":3719,"{}\"":3720,"setinterleaves":3721,"Ln":3722,"PA":3723,"Impl":3724,"UNDEF":3725,"st_Model":3726,"Cost_Model":3727,"Partial_Cost_Model":3728,"ally_":3729,"]\"":3730,"is2":3731,"ats":3732,"proj2_incident":3733,"arith":3734,"via":3735,"Inf_":3736,"rat_poly":3737,"lattice":3738,"extended_distance":3739,"evsO":3740,"M0":3741,"Bs":3742,"VE":3743,"second":3744,"deny":3745,"_star":3746,"integrable_on":3747,"Bto":3748,"binop":3749,"BtoW":3750,"eval_f":3751,"xx":3752,"size1":3753,"fTs":3754,"od_":3755,"summable":3756,"Cont":3757,"circline_set":3758,"GuarNo":3759,"asis_":3760,"m_pre":3761,"sorted_wrt":3762,"evs1":3763,"jj":3764,"_fil":3765,"_rev_aux":3766,"convert_":3767,"rel_ext":3768,"_clause":3769,"strip_":3770,"{{":3771,"Index":3772,"kh":3773,"maxim":3774,"axiom":3775,"sparse":3776,"tF":3777,"approxi":3778,"sic_":3779,"cf2":3780,"prio":3781,"segment_":3782,"lapp":3783,"timpl":3784,"shd":3785,"eq_iff":3786,"X2":3787,"c_0":3788,"FD":3789,"nth_":3790,"_call":3791,"nrows":3792,"extension":3793,"wor":3794,"expansion":3795,"lista":3796,"mthr":3797,"Max_":3798,"OSing":3799,"llist_of":3800,"eqv":3801,"c_1":3802,"types_":3803,"sfx":3804,"La":3805,"vf":3806,"tern":3807,"path_":3808,"frule_tac":3809,"vert":3810,"has":3811,"x23":3812,"jv":3813,"nonzero":3814,"min_al":3815,"con_comp_map":3816,"weigh":3817,"sourcenodes":3818,"authTicket":3819,"vconst":3820,"wellformed_venv":3821,"RR":3822,"nect":3823,"satis":3824,"Data":3825,"off_":3826,"I0":3827,"s_if":3828,"Asser":3829,">^\\<^":3830,")))\"":3831,"indRel":3832,"stp":3833,"_cols_list":3834,">(\\<^":3835,"Get":3836,"pm":3837,"ula":3838,"effects_of":3839,"ida":3840,"cis":3841,"tac":3842,"ires":3843,"|-":3844,"numeral":3845,"blin":3846,"resol":3847,"Basic":3848,"Restr":3849,"t2s":3850,"cost":3851,"pCons":3852,"msx":3853,"bir":3854,"cid":3855,"top_":3856,"dist_":3857,"witn":3858,"F1set":3859,"CI":3860,"dg":3861,"c_fst":3862,"variant_":3863,"ions":3864,"14":3865,"subformulas":3866,"l_comb":3867,"[:\\<":3868,"Ser":3869,"rv":3870,"HLD":3871,"annos":3872,"Goto":3873,"in_carrier":3874,"fmla":3875,"(?\\<":3876,"getCll":3877,"nat_term":3878,"Flo":3879,"to_complex_cvec":3880,"guarded":3881,"PrimRe":3882,"nel":3883,"ws1":3884,"trcl":3885,"M_":3886,"EXT":3887,"wls":3888,"$\\<^":3889,"image":3890,"arity":3891,"satisfi":3892,"applyBackjump":3893,"moebius_":3894,":])":3895,"Gromov":3896,"_Agr":3897,"_AgrK":3898,"_defs":3899,"oreachable":3900,"irst":3901,"clu":3902,"fin_":3903,"s_env":3904,"?'":3905,"assigns_if":3906,"both":3907,"DeclC":3908,"khoff_":3909,"birkhoff_":3910,"welldefined":3911,"_matrix":3912,"subst_cl":3913,"list_of_eucl":3914,"set_tree":3915,"types_agree":3916,"silon":3917,"upsilon":3918,"gs2":3919,"ending_":3920,"leton":3921,"deadlock":3922,"compact":3923,"C_tail":3924,"STCalWB":3925,"cs_":3926,"list_of":3927,"evalE":3928,"wf_prog":3929,"is_lub":3930,"t1s":3931,"_floatarith":3932,"s_set":3933,"'(":3934,"plan":3935,"unitar":3936,")))\\<^":3937,"*:":3938,"lots":3939,"deltaG":3940,"foldli":3941,"p_aux":3942,"values":3943,"orac":3944,"CH":3945,"omorphism":3946,"Gram":3947,"Lit":3948,"Swap":3949,"vwelldefined":3950,"Clo":3951,"gstep_":3952,"bv_":3953,"domin":3954,"[]))":3955,"fa1":3956,"repNode":3957,"Poly_":3958,"vals":3959,"first_":3960,"asm":3961,"_prime":3962,"trace_parallel_p":3963,"approximat":3964,"dicate":3965,"repNodes_eq":3966,"home":3967,"_clock":3968,"free_tv":3969,"stoch":3970,"birkhoff_sum":3971,"Finite":3972,"gex":3973,"cnf":3974,"_of_term":3975,"kernel":3976,"approximating":3977,"Abs_OrdSum":3978,"join_ir":3979,"Ge":3980,"_instr":3981,"exec_plan":3982,"approximating_bi":3983,"gchoose":3984,"form_err":3985,"sep_":3986,"code_":3987,"yste":3988,"x1b":3989,"map_spmf":3990,"Eucl":3991,"DenyAllFromTo":3992,"hm":3993,"idean_space":3994,"',(":3995,"LEQ":3996,"flat":3997,"opt":3998,"shadows_consts":3999,">&":4000,"bind_":4001,"@-":4002,"ad_":4003,"x8":4004,"ts1":4005,"::?'":4006,"mat_of":4007,"try":4008,"wordinterval_":4009,"upper":4010,"nsx":4011,"float_round_":4012,"\",":4013,"tree_edges":4014,"uint":4015,"D2":4016,"sphere":4017,"sums":4018,"subprob":4019,"_fro":4020,"Multi":4021,"fy":4022,"approximating_bigstep_":4023,"lfinite":4024,"some":4025,"strip_guards":4026,"FAL":4027,"FALSE":4028,"Euclidean_space":4029,"mark_":4030,"pats":4031,"Class_type":4032,"walk_":4033,"Name":4034,"gf":4035,"lfp":4036,"approximating_bigstep_fun":4037,"orbit":4038,"polar":4039,"_inf":4040,"fields":4041,"simulation":4042,"lb_":4043,"toSet":4044,"pp_of_term":4045,"Gromov_completion":4046,"ms_":4047,"T3":4048,"x52":4049,"rst":4050,"kvs":4051,"nets":4052,"sur":4053,"rpv":4054,"Good":4055,"HAStates":4056,"lx":4057,"AS":4058,"CD":4059,"Void":4060,"valid_path_aux":4061,"unfolded":4062,"runs":4063,"<)":4064,"rules":4065,"HAInitStates":4066,"xf":4067,"_interval":4068,"_rec":4069,"inline":4070,"x51":4071,"inner":4072,"Ac":4073,"_induct":4074,"MkI":4075,"max_vars":4076,"decisionVars":4077,"K1":4078,"just":4079,"synth":4080,"deadlocked":4081,"val_name":4082,"m3":4083,"IG":4084,"back_":4085,"_code":4086,"alphabet":4087,"MatchNot":4088,">^":4089,"W2":4090,">]\\<":4091,"return_spmf":4092,"distinct_":4093,"_ptr":4094,"gauss_":4095,"dir":4096,"project":4097,"ml_":4098,"_steps":4099,"_ide":4100,"lvars":4101,"Tree2":4102,"II":4103,"Elem":4104,"to_f":4105,"fa2":4106,"closest_":4107,"Port":4108,"coeffs":4109,"lappend":4110,"discr":4111,"x9":4112,"prob_":4113,"distrib":4114,"ltl":4115,"SN":4116,"getCn":4117,"stateB":4118,"_block_mat":4119,"pression":4120,"preser":4121,"NullPo":4122,"NullPointer":4123,"oracle":4124,"{\\<^":4125,"Empt":4126,"Pri_AgrK":4127,"ube":4128,"ws1s":4129,"lta":4130,"generator":4131,"Idle":4132,"FA":4133,"closed_except":4134,"well_":4135,"q_":4136,"_all_operator":4137,"servTicket":4138,"E_":4139,"Xs":4140,"_dist":4141,"_colum":4142,"Integer":4143,"rtran":4144,"relative_":4145,"shif":4146,"Expression":4147,"fra":4148,"Polynomial_":4149,"s_inst":4150,"card_":4151,"standard_":4152,"Polynomial_Expression":4153,"lnot":4154,"null_":4155,"monoid":4156,"rnot":4157,"_xs":4158,"instr":4159,"slice_kinds":4160,"vertible":4161,"ips":4162,"yl":4163,"Ran":4164,"_1":4165,"ws2":4166,"update_clock":4167,"_resu":4168,"regular":4169,"stance":4170,"Ax":4171,"servKa":4172,"sd":4173,"closed_segment":4174,"conju":4175,"slice_kind":4176,"SUCC":4177,"bh":4178,"x2c":4179,"closest_pair":4180,"PQ":4181,"tensor":4182,"fmp":4183,"Regions":4184,"prices":4185,"gt_":4186,"_sem":4187,"accu":4188,"N2":4189,"_between":4190,"pdevs_":4191,"NormalAction":4192,"fdisjnt":4193,"uv_":4194,"c_types_agree":4195,"_filter":4196,"rize":4197,"P_mod":4198,"Range":4199,"]),":4200,"section":4201,"splits":4202,"fmrel_on":4203,"des":4204,"NS":4205,"product":4206,"plus_":4207,"has_disc":4208,"vec_hom":4209,"_cs":4210,"assoc_":4211,"gi":4212,"pred_":4213,"_step_":4214,"gds_is_":4215,"gp":4216,"of_int_hom":4217,"ded_":4218,"abupd":4219,"_cont":4220,"fmpred":4221,"sumC":4222,"nxt":4223,"rTS":4224,"Br":4225,"VS":4226,"gon":4227,"Clauses":4228,"partial_":4229,"Dyn":4230,"Let_def":4231,"coin":4232,"mk_v":4233,"fmrel_on_fset":4234,"Snd":4235,"Forall":4236,"poly_mod":4237,"Only":4238,"car_init":4239,"unlhd":4240,"f_Exec_Comp":4241,"bss":4242,"Invariants":4243,"aff_":4244,"ahm_":4245,"mark_guards":4246,"jan_":4247,"qGood":4248,"_r":4249,"In2":4250,"AllowPort":4251,"AllowPortFromTo":4252,"has_derivative":4253,"basis_":4254,"_int_poly":4255,"mark":4256,"callee":4257,"Ope":4258,"invertible":4259,"gents":4260,"_coun":4261,"Q2":4262,"iver":4263,"Fvars":4264,"lift_valid_edge":4265,"levellist":4266,"nat_to_":4267,"oc":4268,"tient":4269,"agents":4270,"targetnodes":4271,"Float":4272,"inner_":4273,"unitary":4274,"subprob_density":4275,"cls_":4276,"Inp":4277,"tarjan_":4278,"Stream":4279,"resumption":4280,"ls2":4281,"Kab":4282,"global":4283,"_invariant":4284,"ding":4285,"tst":4286,"submatrix":4287,"reduced_":4288,"!)":4289,"paramet":4290,"sum_upto":4291,"super":4292,"ermite":4293,"new_tv":4294,"ori":4295,">).":4296,"_closed":4297,"strict_mono":4298,"_matcher":4299,"asa":4300,"]));":4301,"cptn":4302,"justify":4303,"conf_":4304,"rive":4305,"ruleset":4306,"SKIP":4307,"justifying_":4308,"ied":4309,"changes_":4310,"kerb":4311,"mk_eq":4312,"matrix_sum":4313,"INF":4314,"Gram_S":4315,"13":4316,"uage":4317,"_fresh":4318,"result":4319,")|":4320,"sees":4321,"ment":4322,"subpath":4323,"atoms_mset":4324,"Rep":4325,"ground_":4326,"_conver":4327,"sinks":4328,"orth":4329,"circlepath":4330,"n_k":4331,"liver":4332,"isimulation":4333,"rio":4334,"[]/":4335,"dsk":4336,"_cases":4337,"_pol":4338,"_chan":4339,"bridge":4340,"arrive":4341,"meson":4342,"_rec_":4343,"not_shadows_":4344,"_fail":4345,"evs6":4346,"poincare_between":4347,"vP":4348,"mk_eqcl":4349,"hom_indu":4350,"four":4351,"_boundary":4352,"rou":4353,"raph":4354,"nom":4355,"dagger":4356,"olean":4357,"divis":4358,"tarjan_params":4359,"Ks":4360,"x12":4361,"defNode":4362,"tObs":4363,"clt":4364,"inputs":4365,"rT":4366,"trms":4367,"topi":4368,"lan_":4369,"homotopi":4370,"txt":4371,"Qu":4372,"Boolean":4373,"Rab":4374,"((\\<^":4375,"stateful":4376,"_eq_":4377,"weakBisim":4378,"Equ":4379,"radicals":4380,"with_proj":4381,"t3":4382,"p_f":4383,"decomp":4384,"are_all_operator":4385,"Domain":4386,"W1":4387,"as1":4388,"_pm":4389,"fund":4390,"InvariantWatchesEl":4391,"instrs_of":4392,"size_":4393,"uple":4394,"equival":4395,"normal_":4396,"play":4397,"doub":4398,"line_":4399,"Contain":4400,"_un":4401,"em":4402,"rt2":4403,"aff_dim":4404,"drule":4405,"uniform":4406,"_cf":4407,"mini_":4408,"enu":4409,"EK":4410,"sem_env":4411,"Eats":4412,"rbt_":4413,"FromF":4414,"strateg":4415,"InvariantWatchListsContain":4416,"ClausesFromF":4417,"OnlyClausesFromF":4418,"InvariantWatchListsContainOnlyClausesFromF":4419,"homotopic_":4420,"impli":4421,"Notes":4422,")]\\<":4423,"related_v":4424,"under":4425,"cltn2":4426,"Mul_":4427,"lim_":4428,"mpc":4429,"pnet":4430,"sinvar":4431,"cess_":4432,")}.":4433,"p_i":4434,"match_":4435,"absor":4436,"_iff":4437,"updates":4438,"noLow":4439,"noLowD":4440,"name2":4441,"Server":4442,"execute_":4443,"cls_val_process":4444,"collect_":4445,"kD":4446,"Ret":4447,"of_real":4448,"unity_":4449,"><:":4450,"\"])":4451,"io_":4452,"Rk":4453,"pubK":4454,"ipassm":4455,">));":4456,"nop":4457,"doubt_":4458,"curry":4459,"+,":4460,"qa":4461,"is_generic":4462,"sinks_aux":4463,"singular":4464,"Rep_run":4465,"Radj":4466,"(#":4467,")}\\<":4468,"between":4469,"infdist":4470,"noLowDPs":4471,"append_name":4472,"is_real":4473,"_pow":4474,"DynCom":4475,"_Stream":4476,">{{":4477,"oo":4478,"safe_formula":4479,"stlss":4480,"bothNet":4481,"pTs":4482,"arb":4483,">*)":4484,"in_doubt_":4485,"[:]":4486,"tFirst":4487,"ment_":4488,"_index":4489,"effect_":4490,"forma":4491,"trace_parallel_plan_":4492,"px":4493,"subc":4494,"same_level_":4495,"Ag":4496,"related":4497,"accept":4498,"a0":4499,"avl":4500,"uM":4501,"hom_induced":4502,"_connec":4503,"_context":4504,"natural":4505,"(:\\<":4506,"ath":4507,"raw":4508,"vertex_1":4509,"nn_integral":4510,"nnf_":4511,"reduced":4512,"_for":4513,"freedb":4514,"undefg":4515,"same_level_path":4516,"_Collect":4517,"spvec":4518,"flag":4519,"signe":4520,"conjI":4521,"S_M":4522,"cut_":4523,"pde":4524,"hide":4525,"Conj":4526,"OrdP":4527,"newA":4528,"trace_parallel_plan_strips":4529,"submodule":4530,"Car":4531,"diff_":4532,"spect":4533,"c_dom":4534,"name1":4535,"kau":4536,"us_":4537,"kauff_":4538,"OP":4539,"AsmNoWrite":4540,"term_of_pair":4541,"kauff_mat":4542,"mat_of_cols_list":4543,"geode":4544,"upds":4545,"jumpF":4546,"FDTs":4547,"bhc":4548,"vis":4549,"SubstForm":4550,"as2":4551,"dom_":4552,"man":4553,"typeof":4554,"star_matrix":4555,"rept":4556,"last_":4557,"InvariantConflict":4558,"_cmat":4559,"ifa":4560,"LLL":4561,"State_":4562,"Rep_OrdSum":4563,"anon":4564,"xcpt":4565,"_inverse":4566,"ise_":4567,"precondition":4568,"Qs":4569,"STR":4570,"first_bothNet":4571,"MP":4572,"sive":4573,"_of_state":4574,"pose":4575,"LiteralList":4576,"steps0":4577,"non_":4578,"CL":4579,"MK":4580,"lebesgue_on":4581,"_check":4582,"not_shadows_vconst":4583,"Segment":4584,"not_shadows_vconsts_env":4585,"run_one":4586,"real_of_1":4587,"differentiable_on":4588,"s_consistent":4589,"cum":4590,"list_of_set":4591,"free_":4592,"refine":4593,"subst_lit":4594,"qui":4595,"support_":4596,"_sys_":4597,"min_algs":4598,"xg":4599,"gho":4600,"ik":4601,"Perm":4602,"nomin":4603,"geodesic_":4604,"MKT":4605,"cycle_":4606,"check_":4607,"items":4608,"i_Exec_Comp":4609,"CONT":4610,"i_Exec_Comp_Stream":4611,"ical":4612,"mset_set":4613,"oppositeLiteralList":4614,"prodag":4615,"sepa":4616,"memory":4617,"_spec":4618,"ai":4619,"adjace":4620,">*;":4621,"(!":4622,"a__":4623,"poincare_line":4624,"pired":4625,"relative_homology_group":4626,"CONTEXT":4627,"setReason":4628,"intros":4629,"expired":4630,"qrt":4631,"WW":4632,"hist":4633,"_of_sys_":4634,"addr_of_sys_":4635,"set_rel":4636,"sha1":4637,"ivl":4638,"_is_node":4639,"Gt":4640,"ctx":4641,"ghost_":4642,"addr_of_sys_xcpt":4643,"density_context":4644,"_v":4645,"Finite_":4646,"2_var":4647,"parametrize":4648,"x33":4649,"d_subprob_density":4650,"has_parametrize":4651,"has_parametrized_subprob_density":4652,"dblock":4653,"alts":4654,"15":4655,"resChain":4656,">-\\<^":4657,"tLength":4658,"tm_":4659,"ncols":4660,"subco":4661,"valid_region":4662,"less_gex":4663,"subgraph":4664,"boundary":4665,"less_gexp_aux":4666,">[\\<":4667,"_conv_":4668,"complex_":4669,"run_one_step":4670,"trm_rep":4671,"common_matcher":4672,"Done":4673,"valid_call":4674,"clauseIndex":4675,"execs2":4676,"_sc":4677,"ited":4678,"SES":4679,"fending_":4680,"process_":4681,"sup_":4682,"esa":4683,"jmm_":4684,"set_spmf":4685,"heap_re":4686,"ery":4687,"Rg":4688,"entries":4689,"Formula":4690,"SubstFormP":4691,"let_":4692,"measure_spmf":4693,"Run":4694,"Gram_Schmidt_":4695,"tturnstile":4696,"cart2":4697,"ctn":4698,"C_of_":4699,"ple_":4700,"generated":4701,"High":4702,"unat":4703,"Eg":4704,"rt1":4705,"ego":4706,"reak":4707,"scc":4708,"MC":4709,"XS":4710,"unstream":4711,"blinfun_":4712,"C_of_Eg1":4713,"Eg2_var":4714,"class_":4715,"model":4716,"_shi":4717,"baa":4718,"MFO":4719,"MFOTL":4720,"wait_":4721,"fut":4722,"irs":4723,"jumpF_":4724,"Measu":4725,"IL":4726,"trun":4727,">)}":4728,"rep_nat_term":4729,"_cor":4730,"DP":4731,"part_":4732,"_zs":4733,"Inum":4734,"float_round_down":4735,"bound0":4736,"map_prod":4737,"frontier":4738,"rexp":4739,"])))":4740,"(''":4741,"apath":4742,"pay":4743,"+>":4744,"disc_":4745,"wise":4746,"ssa":4747,"remove1":4748,"tor":4749,"Example":4750,"l3":4751,"obj_id":4752,"ml_v":4753,"ies":4754,"embed":4755,"_circ":4756,"trees":4757,"Resu":4758,"Spec":4759,"Typed":4760,"rs1":4761,"rew":4762,"Denom":4763,"proj2_abs":4764,"filter_":4765,"ipurge_tr_aux":4766,"two_chain":4767,"pmdl":4768,"con_comp_pol":4769,"bil":4770,"rich":4771,"nonneg":4772,"return_time":4773,"_integrable_on":4774,"ate":4775,"unfold_":4776,"Gets":4777,"Simply":4778,"SimplyTyped":4779,"array_length":4780,"_intro":4781,"sint":4782,"eventually":4783,"All2":4784,"richlet_":4785,"ynRg":4786,"PolynRg":4787,"the_gpv":4788,"{}}":4789,"unop":4790,"terminant":4791,"f0":4792,"lower":4793,"stoch_proc":4794,"yp":4795,"_le":4796,"_reduction":4797,"way":4798,"pref":4799,"sort_":4800,"bvars":4801,"can":4802,"inv_into":4803,"cha":4804,"subseq":4805,"INV":4806,"WS":4807,"Operator":4808,"ids":4809,"pr_":4810,"sigma_sets":4811,"connected_":4812,"rtrancl":4813,"his":4814,"ccw":4815,"containsCall":4816,"adm":4817,"ordin":4818,"execution":4819,"hyps":4820,"_commute":4821,"valid_call_list":4822,"null_sets":4823,"nnel":4824,"ine_":4825,"eNorm":4826,"alt_":4827,"proc_":4828,"))));":4829,"ars":4830,"PrimRec1":4831,"psubst_":4832,"defs":4833,"cindex_":4834,"usubstappf":4835,"_set_":4836,"carr_":4837,"continuous_map":4838,"conjugate":4839,"A_tail":4840,"Gen":4841,"if_spl":4842,"edge_":4843,"DA":4844,"poincare_distance":4845,"bool_rel":4846,"HH":4847,"rip":4848,"bdd_lookup":4849,"unity_root":4850,"Coun":4851,"Value":4852,"cons":4853,"nega":4854,"ins_":4855,"Oplus":4856,"unity":4857,"statDeclC":4858,"Param":4859,"d_f":4860,"to_fract":4861,"dec_":4862,"removeAll":4863,"xm":4864,"Uses":4865,"Append":4866,"Algebra2":4867,"loss":4868,"Ap":4869,"ech":4870,"cline_":4871,"element_ptr":4872,"dyn":4873,"totient":4874,"robdd_invar":4875,"Prog":4876,"extract_":4877,"17":4878,"is_type":4879,"link":4880,"echel":4881,"_from":4882,"HM":4883,"coin_spmf":4884,"In3":4885,"timpl_closure":4886,"_column_k":4887,"25":4888,"ConstInt":4889,"arrivemsg":4890,"yy":4891,"ind_":4892,"subcocycle_":4893,"V_":4894,"subsu":4895,"flows_":4896,"oarrivemsg":4897,"tangle":4898,"any":4899,"restricted_":4900,"siste":4901,"b0":4902,"<#>":4903,"mdsa":4904,"Pxy":4905,"Consis":4906,"known":4907,"Imp":4908,"sorted_list_of_set":4909,"lifting":4910,"ig_":4911,"Infinity":4912,"qfree":4913,"_red_":4914,"RB":4915,"position":4916,"same_level_path_aux":4917,"NAa":4918,"is_unit":4919,"basepoint":4920,"p_in":4921,"_intersection":4922,"alw":4923,"tf":4924,"aval":4925,"square":4926,"rotate":4927,"rlfm":4928,"comp_":4929,"lb_pi":4930,"CNP":4931,"m0":4932,"''''":4933,"_gpv":4934,"InvariantConsis":4935,"~\\<^":4936,"enable":4937,"ps2":4938,"Compound":4939,"nat_power":4940,"cted":4941,"no_wait_":4942,"geodesic_segment_":4943,"bq":4944,"inline_call":4945,"no_wait_locks":4946,"commit_":4947,"blinfun_apply":4948,"Card":4949,"reason":4950,"lifted_":4951,"_imp_":4952,"sign_chan":4953,"_all_env":4954,"is_cupcake_all_env":4955,"for_sc":4956,"commit_for_sc":4957,"ates":4958,"cap":4959,"sx":4960,"SeqSubstFormP":4961,"cri":4962,"closedin":4963,"iled":4964,"fli":4965,"red_mthr":4966,"transpose":4967,"algebra_simps":4968,"InvariantC":4969,"r3b":4970,"when":4971,"Discr":4972,"quant":4973,"joint_":4974,"blockmat":4975,"eventually_":4976,"m_def":4977,"action_translation":4978,"devBC":4979,"ysa":4980,"power_":4981,"interrup":4982,"awalk":4983,"itute":4984,"trm_ord":4985,"is_mini_":4986,"_as":4987,"incip":4988,"opt_":4989,"})\"":4990,"pk":4991,"InvariantConsistent":4992,"Graph":4993,"rev_map":4994,"rel_fun":4995,"io_target":4996,"subterm":4997,"MatchAnd":4998,">+\\<^":4999,"permutation":5000,"cla":5001,"cb":5002,"proto":5003,"app_":5004,"stract_":5005,"psubst_term":5006,"ceive":5007,"atoms_":5008,"independ":5009,"circline_":5010,"lasso":5011,"bin_":5012,"((+)":5013,"ideal_":5014,"ZO":5015,"dom_m":5016,"<..}":5017,"af_":5018,"wise_":5019,"FinalAllow":5020,"j_stack":5021,"charac":5022,"tj_stack":5023,"lset":5024,"is_measure":5025,"_pr":5026,"_pf":5027,"drop_":5028,"ss0":5029,"existence_ivl0":5030,"Ho":5031,"dj":5032,"=)":5033,"fici":5034,"Mar":5035,"dh":5036,"_red":5037,"cupcake":5038,"paid_":5039,"bef":5040,"_hom":5041,"lected_":5042,".[":5043,"io_targets":5044,"hal":5045,"_cons":5046,"cance":5047,"S_Max_":5048,"otone":5049,"_sas_":5050,"rm_":5051,"paid_A":5052,"x_axis":5053,"divisor":5054,"is_expansion":5055,"!,":5056,"jorda":5057,"limit_":5058,"valid_return_":5059,"valid_return_list":5060,"Tip":5061,"applica":5062,"subcs":5063,"vertex_2":5064,"lnull":5065,"polynomi":5066,"inorder":5067,"transforma":5068,"[]\"":5069,"([:":5070,"closed_venv":5071,"comment":5072,"pon":5073,"prod_mset":5074,"support":5075,"NC":5076,"DLO":5077,"four_block_mat":5078,"Thread":5079,"ele":5080,"')]":5081,"_ctxt":5082,"_respect":5083,"priSK":5084,"ward_":5085,"t_list":5086,"ps_":5087,"tten":5088,"uverts":5089,"pmf_of_set":5090,"qAbs":5091,"sop":5092,"thin":5093,"type_wf":5094,"L4":5095,"ject":5096,"enn2":5097,"oly":5098,"case_nat":5099,"S_Min_":5100,"_exists":5101,"no_match":5102,"revision":5103,"twoC":5104,"term_to_":5105,"_result":5106,"Dist":5107,"a3":5108,"surj":5109,"norm_":5110,"i_branch":5111,"_inner":5112,"sdnets":5113,"_sas_plus":5114,"port":5115,"CompFun":5116,"loop":5117,"mapi_branch":5118,"_sterm":5119,"dests":5120,"high_var":5121,"blue":5122,"_function":5123,"t_stop":5124,"Pc":5125,"tr_":5126,"_rand":5127,"offs_set_":5128,"_component":5129,"s_on":5130,"<*":5131,"d0":5132,"fn":5133,"resulta":5134,"})\\<":5135,"x1c":5136,"gap":5137,"olution":5138,"*>":5139,"),(":5140,"rel_prod":5141,"dgrad_p_":5142,"ponse":5143,"wb":5144,"deliver":5145,"Determinant":5146,"J1":5147,"mum":5148,"disjoint":5149,"igWls":5150,"minf":5151,"substitute":5152,"applicable":5153,"Qa":5154,"fam":5155,"inser":5156,"sub_":5157,"correct":5158,"scale":5159,"enume":5160,"invariant_":5161,"preds":5162,"control_X":5163,"supp_":5164,"oper":5165,"statC":5166,"sep_ghost_":5167,"sep_ghost_state":5168,"tas":5169,"Rep_Set":5170,"bezout_":5171,"insertion":5172,"sentence":5173,">};":5174,"Distin":5175,"invalid":5176,"revision_step":5177,">*\\<":5178,"fps_X":5179,"()":5180,"Di":5181,"gener":5182,"rw":5183,"D0":5184,"queue":5185,"LB":5186,"obs_":5187,"nt_tickFree":5188,"tObsC":5189,"XXX":5190,"support_set":5191,"fill":5192,"dfj":5193,"lay":5194,"contra":5195,"field_simps":5196,">))))":5197,"_reach":5198,"no_types":5199,"stone_":5200,"letter":5201,"primitive_":5202,"}\\<^":5203,"22":5204,"front_tickFree":5205,"of_int_poly":5206,"justifying_exec":5207,"ln_":5208,">})":5209,"ZF":5210,"Deriv":5211,"terminal":5212,"enabled":5213,"longleftrightarrow":5214,"IO":5215,"stone_phi":5216,"]])":5217,"dig":5218,"ASSE":5219,"Exceptional":5220,"_sym":5221,"bot_":5222,"Hoare":5223,"rati":5224,"iface_":5225,"convex_":5226,"variation":5227,"_tm":5228,"s_le":5229,"is_heap":5230,"simAbs":5231,"diagram":5232,"poly_mult":5233,"impI":5234,"alize":5235,"ystem":5236,"nsc":5237,"docum":5238,"rate_":5239,"valida":5240,"BB":5241,"control_Y":5242,"_point":5243,"evsO1":5244,"dterm_sem":5245,"eps":5246,"NBa":5247,"tl2":5248,"ptrm_":5249,"tendsto":5250,"refinement_":5251,"AK":5252,"State_Idle":5253,"Rv":5254,"upper_":5255,"hn_ctxt":5256,"mas":5257,"ipurge_ref":5258,"Distinct":5259,"strategy":5260,"LIM":5261,"transform_":5262,"_row_":5263,"e1a":5264,"Pw":5265,"ipassmt":5266,"tAct":5267,"rem_":5268,"ASSERT":5269,"quantu":5270,"poly_ring":5271,"e2a":5272,"is_quantu":5273,"wf_jv":5274,"m_predicate":5275,"nominals":5276,"is_quantum_predicate":5277,"SA1":5278,"Eval":5279,"str_init":5280,"_respects_":5281,"verge":5282,"ample_":5283,"(((\\<":5284,"nth_prime":5285,"_wall":5286,"Minus":5287,"Pinj":5288,"p_s":5289,"til":5290,"Ipoly":5291,"rop":5292,"ReadMem":5293,"vars_of":5294,"relation_of":5295,"flatten":5296,"ip_":5297,"is_map_":5298,"_expr":5299,"remove_":5300,"stkLength":5301,"is_leve":5302,"refinement_lattice":5303,"sorted_spvec":5304,"isrlfm":5305,"tharpoon":5306,"Subr":5307,"derivation":5308,"_T":5309,"Rep_N":5310,"Tvec":5311,"rs_":5312,"ASucFbd":5313,"Assertion":5314,"echelon_":5315,"ints":5316,"3_list":5317,"hd_":5318,"has_field_":5319,"Example3_list":5320,"yr":5321,">'\\<^":5322,"FAIL":5323,"sgnx":5324,"adjacent":5325,"absorb":5326,"_effect":5327,"contr":5328,"Proj":5329,"nh":5330,"slp_of_":5331,"Tra":5332,"lt_":5333,"mods":5334,"low_var":5335,"pure":5336,"arctan":5337,"oip":5338,"dv":5339,"simpli":5340,"aa_":5341,"TTP":5342,"_write":5343,"USubst":5344,"duct":5345,"PX":5346,"SAs":5347,"iz":5348,"is_al":5349,"Eq_":5350,"sz":5351,"prime_":5352,"ptrm_fvs":5353,"RelS_":5354,"frag":5355,"<#":5356,"tset":5357,"lose":5358,"triple":5359,"_ys":5360,"semi":5361,"Subring":5362,"nl":5363,"RelS_Eg1":5364,"Eg2":5365,"Pop":5366,"RelS_Eg1Eg2":5367,"xcpt_":5368,"za":5369,"pf1":5370,"Uvariation":5371,"change_":5372,"sparse_row_":5373,"lowe":5374,"_diagram":5375,"point_":5376,"nodes_":5377,"K2":5378,"parTs":5379,"nodeType":5380,"ratio":5381,"afe":5382,"TermP":5383,"CAs":5384,"backward_":5385,"Invk":5386,"MethodInvk":5387,"silen":5388,"mk_rec_":5389,"Upd":5390,"mk_rec_env":5391,"break":5392,"lebesgue_integral":5393,"q0":5394,"''\"":5395,"H2":5396,"walk_verts":5397,"incipal":5398,"_on_":5399,"Lang":5400,"has_field_derivative":5401,"silent_":5402,"is_tangle":5403,"mon_c":5404,"n_val":5405,"proj2_line_":5406,"unwrap":5407,"mat1":5408,"is_tangle_diagram":5409,"Drop":5410,"hamlet":5411,"cx":5412,"ldrop":5413,"s_from_":5414,"minim":5415,"Lim":5416,"c3":5417,"unit_vec":5418,"ligi":5419,"make_":5420,"ligible":5421,"item_":5422,"ren":5423,"silent_move":5424,"formed":5425,"TP_expr":5426,"x19":5427,"cart2_pt":5428,"Bex":5429,"file":5430,"})))":5431,"range_vars":5432,"_connected":5433,"olute":5434,"preserves_":5435,"_converter":5436,"initialize":5437,"LS":5438,"the_inv":5439,"ure_":5440,"add_match":5441,"random_b":5442,"is_val":5443,"'];":5444,"x53":5445,"expectation_gpv":5446,"locales":5447,"vs_to_":5448,"InvariantWatchListsCharacterization":5449,"compileExpr":5450,"InvariantWatchListsUniq":5451,"aexp_":5452,"Check":5453,"qA":5454,"hd_coeff":5455,"_intros":5456,"random_bst":5457,"heap_write":5458,"unlabel":5459,"lossless_":5460,"generat":5461,"_pde":5462,"GuarNoReadOrWrite":5463,"valid_path_rev_aux":5464,"_mult_":5465,"ulus":5466,"_F":5467,"kerbIV":5468,"J2":5469,"subgoal_tac":5470,"set_lvars":5471,"putfield":5472,"rough":5473,"NewExit":5474,"cks":5475,"atm":5476,"subspace":5477,"_reg":5478,"cptn_":5479,"Iface":5480,"Y2":5481,"instance":5482,"trace_hide":5483,"FI":5484,"next_name":5485,"through":5486,"cptn_mod":5487,"select_":5488,"rify":5489,"division_of":5490,"real_derivative":5491,"transpos":5492,"has_real_derivative":5493,"_count":5494,"Ls":5495,"bounds":5496,"InvariantWatchCharacterization":5497,"n_as":5498,"Binp":5499,"vs_to_es":5500,"x11":5501,"cut_tac":5502,"interchange_":5503,"inside":5504,"allI":5505,"subtrees":5506,"evalD":5507,"'))))":5508,"Auth_":5509,"w0":5510,"ants":5511,"Aexp":5512,"odd_":5513,"_rexp":5514,"jordan_":5515,"well_formed":5516,"ps1":5517,"evalDdb":5518,"_per":5519,"semantics":5520,"(=))":5521,"ternary_":5522,"Hashed":5523,"unfold_locales":5524,"qn":5525,"function":5526,"--`":5527,"simplif":5528,"_factors":5529,"sim_":5530,"splay":5531,"({},":5532,"expr_sem_":5533,"llb":5534,"scf_":5535,"natom":5536,"ctm":5537,"inder":5538,">{(":5539,";;\\<^":5540,"absolute":5541,"patoms_mset":5542,"natoms_mset":5543,"LLL_":5544,"eli":5545,"succeq":5546,"#[":5547,"listset":5548,"normalized_nnf_":5549,"standard_simplex":5550,"']]":5551,"RSNormal":5552,"Measure":5553,"sample_":5554,"Jo":5555,"expr_sem_rf":5556,"normalized_nnf_match":5557,"18":5558,"conf_transform":5559,"response":5560,"hps":5561,"InvariantWatchesDiff":5562,"witness":5563,"InvariantWatchesDiffer":5564,"LU":5565,"S0":5566,"Sr":5567,"proj2_line_through":5568,"stut":5569,"clock_":5570,"thin_tac":5571,"iMin":5572,"string":5573,"terna":5574,"subsumes":5575,"uncurry":5576,"Upda":5577,"c0":5578,"Auth_Data":5579,"ild":5580,"leftharpoon":5581,"Units":5582,"ymp":5583,"ET":5584,">'''":5585,"eSuc":5586,"payload":5587,"DERIV_floatarith":5588,"messa":5589,"R0":5590,"mxl":5591,"PD":5592,"than":5593,"clarify":5594,"Hpr":5595,"iterator":5596,"|`|":5597,"fs_":5598,"cheme":5599,"Es":5600,"catch":5601,"diverge":5602,"bob":5603,"antis":5604,"erule_tac":5605,"_common":5606,"aform_err":5607,"static":5608,"Recv":5609,"ogon":5610,"Monad":5611,"=:":5612,"Mult":5613,">{=:":5614,"wordinterval_to_set":5615,"fps":5616,"_continuous":5617,"AM":5618,"weights":5619,"cluding":5620,"d1h1":5621,"pdevs_val":5622,"_consts":5623,"Rrightarrow":5624,"Rcd":5625,"scalar_":5626,"absolutely":5627,"tms":5628,"mix":5629,"Assign":5630,"j0":5631,"next_state":5632,"Counter":5633,"_opt":5634,"Closure":5635,"to_Gromov_completion":5636,"CS":5637,"tesi":5638,"foldpairs":5639,"part_circlepath":5640,"EE":5641,"av":5642,"]).":5643,"approx_tm":5644,"get_match":5645,"}).":5646,"tse":5647,"disjoint_":5648,"homotopic_with":5649,"cross_ratio":5650,"_good":5651,"step_":5652,"ance":5653,"higha":5654,"open_":5655,"valid_states":5656,"insertAssertion":5657,"rx":5658,"tible":5659,"tesian_":5660,"input_":5661,"fix_":5662,"monoid_":5663,"Trace":5664,"Post":5665,",\\<":5666,"resi":5667,"qty":5668,"jointfun":5669,"its_":5670,"subsetD":5671,"heap_read":5672,"crit_":5673,">');":5674,"oph":5675,"dioph":5676,"DD":5677,"getfield":5678,"ante":5679,"dflt":5680,"),\\<":5681,"tration":5682,"wl":5683,"Extend":5684,"enn2real":5685,"ily":5686,"OG_":5687,"m_in":5688,"Getfield":5689,"OG_Hoare":5690,"_compose":5691,"document_":5692,"chy":5693,"positive":5694,"wt_":5695,"location":5696,"indets":5697,"elementLevel":5698,"good_":5699,"quoti":5700,"Ok":5701,"ular_":5702,"TVar":5703,"phase":5704,"slp_of_fa":5705,"interrupts":5706,"Worder":5707,"ffact":5708,"action_loc":5709,"inver":5710,"Disj":5711,"Y1":5712,"xps":5713,"expand":5714,"the_inv_into":5715,"bq1":5716,"rng":5717,"Phi_":5718,"isome":5719,"C_then":5720,"C_else":5721,"\"[":5722,"algo":5723,"write_actions":5724,"line_integral_exists":5725,"Nets":5726,"_reduction_":5727,"FEval":5728,"Log":5729,"PS":5730,"canon":5731,"_sor":5732,"_dom":5733,"Terms":5734,"#=":5735,"ny":5736,"Product":5737,"Sig_good":5738,"_g":5739,"ore":5740,"calc_":5741,"ope":5742,"Phi_EP":5743,"_psi":5744,"ish":5745,"Poly_Mapping":5746,"Acc":5747,"GS":5748,"yx":5749,"less_eq":5750,"bis":5751,"sesK":5752,"dominates":5753,"_failures":5754,"sign_changes":5755,"length_":5756,"prime_factorization":5757,"SEM":5758,"solution":5759,"uniform_":5760,"entry":5761,"gent_":5762,"_ideal":5763,"less_aexp_":5764,"univ_":5765,"fset_of_list":5766,"uu":5767,"Pseq":5768,"inte":5769,"[].":5770,"less_aexp_aux":5771,"HD":5772,"nodeslist":5773,"_k":5774,"Binop":5775,"prog1":5776,"commit":5777,"ged_":5778,"_consistent":5779,"drin":5780,"A3":5781,"dirichlet_":5782,"slice":5783,"_reduction_simulation":5784,"slots":5785,">'')":5786,">(?":5787,"small":5788,"ALG":5789,"AuthT":5790,"lf":5791,"outside":5792,"hmset":5793,"possible":5794,"z3":5795,"item":5796,"_insert":5797,"traces":5798,"Cl_":5799,"_cycle_":5800,"prim":5801,"HMA_":5802,"ListMem":5803,"rank_invar":5804,"control_Z":5805,"Combin":5806,"isin":5807,"Marker":5808,"R23_":5809,"dex":5810,">+;":5811,"Input":5812,"chop":5813,"Sabs":5814,"Co1":5815,"back_edges":5816,"iter":5817,"spp":5818,"dhops":5819,"visited":5820,"({(":5821,"reverse":5822,"JVM_":5823,"yt":5824,"_index_":5825,"Contra1":5826,"loc_reach":5827,"uset":5828,"sign_":5829,"(<":5830,"proj_stoch_proc":5831,"simplified":5832,"Proper":5833,"omorphic":5834,"#},":5835,"AAs":5836,"_coef":5837,"thd":5838,"redT_":5839,">])":5840,"Denies":5841,"intra":5842,"sterms":5843,"_constra":5844,"nonempty":5845,"insertDenies":5846,"the_enat":5847,"rie":5848,"Px":5849,"variate_":5850,"Mm":5851,"isLeaf":5852,"ref_":5853,"sumlist":5854,"Strat2":5855,"prox":5856,"mix_pmf":5857,"Reflected_":5858,"Multivariate_":5859,"stutter":5860,"Reflected_Multivariate_":5861,"Reflected_Multivariate_Polynomial":5862,"asymp":5863,"lin_ind":5864,"24":5865,"ccExp":5866,"below":5867,"multiway":5868,"start_of":5869,"ccExp_syn":5870,"dgrad_p_set":5871,"s4":5872,"Rules":5873,"sorted_poly_rel":5874,"rmhist":5875,"Fr_":5876,"ult_":5877,"ctxt":5878,"deg_pm":5879,"lpp":5880,"xj":5881,"las":5882,"pts":5883,"folding":5884,"FieldProj":5885,"Grp":5886,"seq_comp":5887,"radius":5888,"comm_":5889,"convert_multiway":5890,"waiting":5891,"mkId":5892,"weakly":5893,"actions_subset":5894,"stmt":5895,"l1a":5896,"_permutation":5897,"Ftor":5898,"decess":5899,"predecess":5900,"moebius_mu":5901,"_bpp":5902,"family":5903,"secure":5904,"QCharacterization":5905,"is_class":5906,"abstract_":5907,"InvariantQCharacterization":5908,"term_to":5909,"flip":5910,"succPerm":5911,"exec_instr":5912,"commute_bpp":5913,"osn":5914,"desc":5915,"add_effects_of":5916,"ta2":5917,"node_":5918,"remdups_":5919,"lowa":5920,"BN":5921,"_ok":5922,"_kinds":5923,"_inv1":5924,"mon_w":5925,"object_slots":5926,"Span":5927,"_diff":5928,"lemma":5929,"weak_reduction":5930,"lowest_":5931,"Vx":5932,"_I":5933,"_inv_":5934,"to_bl":5935,"eval_fds":5936,"tm_poly":5937,"indRelR":5938,"Ipol":5939,"leva":5940,"spa":5941,"isLeaf_pt":5942,"face_cycle":5943,"are_all_operators_":5944,"GB":5945,"_scheme":5946,"Rabort":5947,"releva":5948,"chamber":5949,"Cartesian_":5950,"Finite_Cartesian_":5951,"Finite_Cartesian_Product":5952,"PB":5953,"bq2":5954,"sys_":5955,">''.":5956,"orph":5957,"'');":5958,"Inj1":5959,"ClassT":5960,">*(":5961,"YS":5962,"dest_":5963,"_sum":5964,"connect":5965,"predecessors":5966,"Allocation":5967,"is_cupcake_exp":5968,"bernoulli_pmf":5969,"prev":5970,"coll":5971,"echelon_form":5972,"dnf":5973,"tprg":5974,"_cycles":5975,"ins_is":5976,"obs_intra":5977,"seq_comp_failures":5978,"det_":5979,"inject":5980,"hconf":5981,"aKey":5982,"restricted_subformulas":5983,"lm1":5984,"mprog":5985,"_syz_":5986,"wf_jvmprog":5987,"OPT2":5988,"bset":5989,"takeWhile":5990,"Hermite":5991,"bddh":5992,"-=\\<^":5993,"forest":5994,"next_action":5995,"_primi":5996,"ords":5997,"nsion_":5998,"rec_exec":5999,"delete_effects_of":6000,"gfp":6001,"inext":6002,"merge_guards":6003,"xaaa":6004,"limsup":6005,"auchy":6006,"cfg1":6007,"valid_sop":6008,"in_set":6009,"relevant_":6010,"declclass":6011,"antisym":6012,"B4":6013,"UU":6014,"receive":6015,"set_of_":6016,"Sim":6017,"resultant":6018,"prefer":6019,"_ref_":6020,"culus":6021,"fre":6022,"codomain_block":6023,"noc":6024,"ality":6025,"dense":6026,"Update":6027,"solve":6028,"Array_":6029,"ycl":6030,"Join":6031,"prog_sem":6032,"d3h1":6033,"entail":6034,"_degree":6035,"fmap_of_list":6036,"_syz_sig":6037,"keys_":6038,"less_than":6039,"Connect":6040,"Rep_hyp2":6041,"divides":6042,"bounded_by":6043,"rect_":6044,"sat_":6045,"GAM":6046,"rupted":6047,"GAMMA":6048,"hm_":6049,"bpp":6050,"prods":6051,"02":6052,"times_":6053,"Aexp_syn":6054,"interchange_rows":6055,"_trans":6056,"map_option":6057,"ConstInt32":6058,"all_consts":6059,"greater_eq":6060,"cond_":6061,"outer":6062,"ection":6063,"ings":6064,"range_tm":6065,"blocks":6066,"~~":6067,"Case":6068,"bangPred":6069,"achable":6070,"in_doubt_allow":6071,"opti":6072,"Suc_":6073,"T_i":6074,"closest":6075,"Abs_wf_jvmprog":6076,"zes":6077,"Plimit":6078,"slength":6079,"proots_within":6080,"negligible":6081,"heap_base":6082,"carr_prodag":6083,"sizes":6084,"LID":6085,"S3":6086,"eval_poly":6087,"simplici":6088,"hold":6089,"value_to":6090,"SDG":6091,"Interrupted":6092,"Methd":6093,"rb_":6094,"clm":6095,"lic":6096,"status":6097,"assoc_bpp":6098,"Ctxt":6099,"isometry":6100,"eqI":6101,"abss":6102,"quot_":6103,"valued":6104,"kdt":6105,"triangleleft":6106,"b3":6107,"scf_d":6108,"plusinf":6109,"has_vector_derivative":6110,"ht":6111,"urity":6112,"InvariantCl":6113,"value_to_sterm":6114,"for_":6115,"_components":6116,"fending_flows":6117,"ator":6118,"typing":6119,"sos":6120,">{..":6121,"square_free":6122,"antec":6123,"Tk":6124,"mpoly":6125,"clk":6126,"lit_":6127,"QR":6128,"_frontier":6129,"Language":6130,"deno":6131,"FlagCharacterization":6132,"dfs_":6133,"InvariantConflictFlagCharacterization":6134,"ASS":6135,"IF1map":6136,"_cost":6137,"MM":6138,"(=\\<^":6139,"satisfiable":6140,"leq":6141,"node_ptr":6142,"descend":6143},"merges":["\\ <","s u","r o","i n","a l","su b","t e","t a","r i","n d","l e","o f","o n","\\< ^","a m","g o","r a","i s","go al","p ro","g h","ro w","ta r","tar row","gh tarrow","s e","t h","g e","ri ghtarrow",") )","r e","am b","on g","ong rightarrow","b ra","a r","o r","s t","x t","m a","k k","bra kk","d ge","pro of","e nd","A _","O B","I S","te xt","ri dge","< |","| >","OB S","end of","C amb","A_ OBS","IS A_OBS","endof text","Camb ridge","v e","( \\<","L ongrightarrow","a nd","sub goal",") :","n o","n g","> \\<","d e","is t","s i","th is","s ta","> \\<^","o m","A nd","te q","l a","sta te","in g","se t","e x","l brakk","r brakk","u r","pro ve","u s","l o","al l","S u","ng le","h a","c e","e n","f or","i le","ur n","t i","t _","u n","Su c","o l","st ile","urn stile","d a","m e","x s","ist s","p ar","for all","e l","ex ists","am ma","s _","t urnstile","te r","amb da","l ambda","e r","no t","us ing","no teq","t o","m p","a t","d _","' )","o t","l ongrightarrow","G amma","sub se","subse teq","ng th","ma p","le ngth","a p","a s",") ;","p l","c k","e s","h i","p a","i on","b y","su p","_ c","a d","re al","b sub","e sub","s h","> )","u l","ra ngle","la ngle","i t","a c","' '","ge t","subgoal s","t s","v al","_ of","u p","l ist","' ,","p re","i f","p i","si g","o p","_ in","c t","par r",") \\<","o w","f lo","si mp","i l","ti on","a u","un ion","c a","s s","c h","sig ma","f in","c ar",")) )","in ter","d ot","' .","R i","ar p","Ri ghtarrow","m o","( (","d i",". .","y s","[ ]",": :","om e","I n","r u","i r","ap pl","x a","or m","e ta","> (","c on","p hi","appl y","ol d","n e","f st","flo or","v s","c o","ta u","om p","c dot","m _","s nd","th en","n t","sh arp","al le","st o","x 2","p ha","al pha","_ de","> *","ha in","> ;","not in","alle l","d s","par allel","ra n","p ol","m s","> ,","r h","bra ce","R e","p s","b s","le t","i d","_ s","th es","thes is","c s","u te","S ome","r t","x 1","c hain","v ar","re e","ha ve","_of _","' \\<","t y","P si","b o","k e","ca se","el se",") ,","in t",":: '","pol y",": =","v a","au to","ri er","on e","c l","e q","pi ck","c _","car rier","b a","ti me","ma t","{ }","le f","al se","pick ing","map sto","ve r","N o","U n","a a","re l","F alse","time s","' ;","p _","in d","s q","ad d","b ul","le m","bul let","is _","l i","r parr","l parr","n u","ac ute","c omp","no de","z e","_de f","i te","V ar","c lo","g u","C on","b le","h e","> '","m in","f i","d om","p e","s 1","orm al",") .","d ist","_ p","gh t","> .","ow n","] )","le x","de l","D el","s 2","n at","e d","Del ta","clo se","rh o","me m","b old","e t","R el","ru le","lef t","l floor","c al","t r","f s","E x","pl us","g a","mo d","g amma","r s","am e","fin ite","pa th","_ f","ve c","pre c","l ong","Su m","u nd","r floor","ri ght","L e","c ir","ru e","p o","} )","del ta","ex p","a b","a su","o k","il lem","gu illem","guillem ot","g s","op en","f _","in se","me asu","f old","P ro","b ar","cir c","la ss","pa ce","t ran","a n","l brace","r brace","p c","u t","& &",")) ))","d own","lo cal","car d","N one","m u","de g","te g","N ormal","T rue","l l","inse rt","at om","sh ow","e c","b eta","_ re","n s",".. <","p si","( -","la st","f a","p t","o times","f ro","i d_","m on","at ch","measu re","sub st","s o","ul t","i p","M a","m f","r _","e f","Un ion","m ds","_in t","I V","l s","ri a","e val","r y","f m","in de","en v","lo w","b d","comp lex","_ i","c 1","u m","su m","m set",") \"","U N","val id_","e dge","t 2","t 1","r al","T urnstile","n ame","tran s","x _","o nd","th e","s m","c f","ty pe","_ on","list _","_of_ real","q ed","c 2","st ri","complex _of_real","e 2","e 1","o plus","th eta","o d","l n","fi x","* \\<^","d is","i de","get M","E S","o b","teg ral","ze ro","n a","e xt","di v","guillemot right","p p","UN IV","to _","s pace","t urn","( ?",")) ;","l in","c t_","h d","( (\\<","\" \\<","deg ree","w s","u ts","long mapsto","un fold","> {","re d","y _","b b","p r",") \\<^","inde x","C ol","] ,","ta ke","of _","as s","} .","ur ce","v _","ne xt","n orm","l t","te p","ver se","e vs","> ))","su c","Con f","ran ge","in s","eq u","l _","S T","$ $","ap pro","w i","va ria","W atch","m i","unfold ing","or de",") }","real _of","fro m","u a","s tar","mat ch","to p","V s","T s","en t","x vec","li ct","f il","f un","ef f","Conf lict","wi th","real_of _int","de f","[] ,","ge nt","n _","i v","i g","co de","appro x","al _","P hi","s a","ok up","er m","_ set","d o","lo okup","t ra","K e","re s","u le","> +","au x","arp o","arpo on","pro j","it y","in verse","de ri","var s","c om","{ (","i t_","_c omp","p ow","ke y","in v","u se","dist in","n 1","P a","p h","r d","_c on","he re","N e","ass ms","z s","? \\<","varia nt","h arpoon","[ \\<","s n","rh d","A gent","O F","h ile","ul l","harpoon left","te _","ter m","x 3","s s_","b er","lo ck","u e","Col on","' ))","mp ty","up harpoonleft","< \\<","in tegral","] \\<^","set _","P i","Un it","ome ga","or d","V r","F un","re p","distin ct","ma x","t l","as su","p mf","in it","s 0","Ma in","am ond","ti ve","di amond","b ind","w f","se q","&& &","re a","me t","hi gh","equ iv","} ;","la ck","B a","ce q","i a","B lack","m 2","pa ir","ac t","_ b","V al","l y","h om","> ]","si m","In variant","if f","Ke y","S ta","l if","bo und","M uts","F a","te d_","fil ter","y n","p ri","pre ceq","C F","te d","M ap","k _","l 1","ro up","sq subseteq","v d",") ]","c tion","k ind","ac tion","or t","T h","orde r","con t","i m","L am","re stri","st _","re turn","A b","L ist","get Watch","t om","No de","S a","n ch","bra nch","> ?","ve l","g ra","') ;","C lass","ac c","ga te","f v","w here","_c lass","CF G","map _","o ut","edge s","mo re","lin e","t m","L E","q s","si ze","d u","E n","get F","la use","b sup","e sup","ry pt","O K","co un","e mpty","ing _","suc c","a f","b last","int ro","M 2","u st","b i","in p","s in","b c","bo x","get C","pro p","ne w","( '","s l","poly _","fin ity","ti al","u b","Fa ult","ha s_","p 2","so urce","i ve","Pro pa","Unit Propa","n ormal","se r","le ss","p la","Sta te","C rypt","UnitPropa gate","le _","b ot","| \\<","N um","v 1","; ;","en ce","w e","tar get","assu me","ct or","ar get","ra ble","M 1","min us","_ ta","e lem","sub set","su rd","T erm","m 1","S ig","a t_","o s","f er","s or","x b","ma in","T arget","ra t","t ree","e _","c hi","> [","A a","in finity",")) \\<","C N","n 2","N orm","s tep","L o","pow r","Re p_","mon om","d vd","rel _","re v","v 2","C s","mu la","source node","a g","_p mf","pro g","ex ha","Black s","ex te","ad d_","exha ust","met is","guillemot left","la g","x i","n ce","W hile","lef tarrow","lo g","ind u","y m","n 0","p 1","ta in","state _","h o","exhaust ive","T Rel","Con s","gra ph","m id","mat ri","r un","In 1","m ult","exhaustive UnitPropagate","p end","fi el","na t_","mo ve","x2 a","Le vel","y a","b _","ge _","' ')","r 1","e d_","par am","le ad","Sig ma","ce il","r 2","sq union","j o","l on","as is","lead sto","d y","pre fix","+ +","{ \\<","he ap","I N","en t_","en n","up da","se m","ra c","D e","rea ter","ge t_","P R","i mp","r c","enn real","ul ti","en ts","deri v","T H","E q","c ol","target node","le n","F lag","l 2","set s","N il","ter al","^ ^","o ver","mo d_","au th","in us","I P","t t","bo dy","i o","b all",":: =","c n","re f","e measure","C list","j u","er _","con st","a st","> |","C 0","id 1","co eff","n th","su it","acc C","diamond suit","n si","w a","> );","n poly","( [","op s","Num ber","sq inter","g m","u o","e P","exte nd","c mod","A bs","i ze","C all","e V","ve ctor","bd t","2 _","O D","D own","In t","case s","x c","la b","in _","Ne g","d ro","u _","sh r","en at","om inus","j _","a 1","o dot","C A","su m_","h ence","mon o","_ta c","( {",")) )))","get Conflict",")) ,","psi lon","p v","ob tain","M e","w el","is npoly","f act","for mula","ce _","le ss_","R E","ES 1","pro d","row _","s g","f p","isnpoly h","a 2","f ree","m d","b r","> #","sta ck","1 0","te ri","S t","ex ec","i c","o urce","_ all","c list","prop to","bot tom","T 2","co s","upda te","x 0","al so","pla in","in j","g reater","ES 2","ke ys","_c o","w f_","- `","l cl","A ll","apply Conflict","e ct","th us","s pl","S ource","\" (","sup p","un it","d 1","g roup","f 1","lab el","N on","ju mp","u u_","Ex plain","lif t","A r","more over","apply Explain","S A","s c","of_ nat","all y","T o","( \\<^","ne t","s ym","Re c","E Q","a tion","U IP","ar row","P ol","k no","'' .","L i","ra y","s p","dro p","A l","T a","> (\\<","for ce","[] )","ex e","P s","long longrightarrow","g 1","o bs","re ac","te nt","x1 a","h p","') \\<","> ',","fro m_","Ab s_","T i","applyExplain UIP","C T","ri th","mid arrow","o se","get Q","ar n","in e","[] ;","list_ name","plus minus","Th eta","ge ne","real _of_","n r","re g","par tial","C omp","> <","wel l","R ule","valid_ edge","uo us","in uous","sig n","{} ;","auth K","Pro d","pro d_","trans fer","mod_ type","un i","rat or","is ion","W B","e v","Sa ys","mod_type _class","ra t_","} \\<","d b","E nt","N ull","Ent ry","] ))","ser v","_in tegral","In ter","[ ^","f ir","eq _","Le arn","p y","Non ce","g pv","ve n","c at","carrier _","an al","u t_","apply Learn","e real","_in v","f 2","pe c","sq rt","re sh","[ :","po si",">) \\<","T 1","co nd","d s_","_c ol","pr g","ma t_","flo w","ca te","node s","getConflict Flag","re move","[ (","I m","/ \\<^","v id1","T r","restri ct_","c lause","list_ all","val id","b l","Con st","g greater","Pa ir","S k","t ria","n on","B o","ro ot","Lo ad","rep b","Li teral","ide al","a ta","anal z","do main","{ #","r up",".. .","ro und","S et","| `","di m","n t_","f g","S py","ab el","pri me","p ing","se gm","> ''","H A","ma ge","dis c","a _","cont inuous","a e","O r","return _","re pa","_f ree","TH E","O M","[^ ]","m k_","g 2",". \\<","elem ents","Sk ip","L abel","ec ide","n n","ce s","dot s","l less","] ;",">, \\<","bo rel","> }","s_ of","val _","m ul","b in","tria ngle","a bs","' \"","cl s","st r",")) \"","shr K","for m","U nd","A s","Ne w","di m_","_s pmf","z ation","r ceil","red u","c box","I F","cn j","d one","bd d_","Ma x","ro r","> \"","subst _","> ')","re am","me r","ecide d","Und ecided","d 2","! !","ri te","fm dom","f t","A pp","simp s","I d","rh s","_comp lex","_in var","l hd","Target Term","_ aux","pro b","gu ar","fin e","_s tep","x2 1","} ))","ce ss","pre t","L L","le ct","n ti","S eq","_c om","n id","st k","c all","c ur","re la","- \\<^","w p","ch e","b 1","we a","matri x","ve s","re p_","in f","w ap","set _of","ms g","E dge","P o","spl it","kno ws","param s","fin al","le a","_ op","indu ct","A n","fir st","va tive","valid_ path","ge bra","n x","e psilon","i ght","from_ nat","I M","T gs","_c ond","ck _","R o","ta x","k s","normal ize","S OM","SOM E","ha ble","he ad","En v","> '.","close d","nu m","ho ok","le te","b asis","c i","yn tax","G roup","' ]","x 4","Ro ot","d iff","C al","sl p","mul t_","to t","fa st","S _","O p","L t","serv K","M in","S E","teg rable","] [","_in it","nsi ty","pre d","S q","ge n","P ar","re _","ri c","ma te","A A","or d_","_f un","coun t","ulti mate","ultimate ly","'' ,","getC l","M atch","er ror","ter m_","measu rable","long longlongrightarrow","b it","de t","State s","for me","s is","T P","Map ping","< :","tot al","H om","r r","flo ata","floata rith","] \\<","po in","er r","Ti ck","ip ur","la n","_s pace","p er","un it_","in di","CFG _","ne g","cf g","c d","S yntax","b st","C o","w hile","posi te","S K","} \"","En ter","no t_","y c","i 2","In it","T S","} ,","P E","ran k","di p","i al","ha rac","b 2","i el","val ue","su re","` `","op posite","st ream","O b","t 0","is im","v b","m ute","sta t","N et","sum ma","reac hable","k 1","i _","state_ val","mp tion","Ba ck","u ck","M k","d d","te ps","'' \\<","rup t","of _int","Invariant Watch","ext ra","eval ua","Back jump","M OD","l c","triangle right","ba se","s ing","St uck","S 1",") [","f e","v c","s li","c c","B k","p unit","re ad","s rc","t rue","- -","i i","re pc","xt _","is Fault","Pol y","ha n","i 1","( $","Root s","n f","sub sta","jo int","u substa","match es","add r","R ing","s at","r n","ta tion","restri ct","# #","ar c","segm ent","^ \\<^","x 5","hom o","s_ def","c ss","c lass","ar gs","simp _all","no _","in var","inj _on","n exists","ve c_","s 3","fp s_","zero _","sor ted_","iel d","le d","m b","no mi","tra ce","l list","_i mage","y pe","o uts","> =","Me th","F 0","z 2","I fm","ro m","_c hain","s ol","close d_","pro c","log y","ta il","pa n","Ex it","P 1","as on","[ [","well forme","a x","D om","continuous _on","proj _","ch o","es s","getWatch 1","] )\\<","_ map",")) \\<^","f ol","pa re","x y","c ong","the _","C 2","D E","mod ule","e ven","getWatch 2","ta nce","dis tance","O f","fiel d","wea k","ri me","] ]","\" ?","i G","b e","error _free","Var B","In v","W rite","_ t","_ rel","th r","F 2","up t_","fast force","z 1","In1 l","wf p","l st","_ list","k 2","lo c","row s","fin is","Ab rupt","mp l","A tom","{} )","coun t_","I f","wa it","re c","T ree","exe cs","x2 2","Re ad","s wap","xs a","- \\<","op tion","P ri","l borel","pro cs","dom A","( =","to po","ma x_","C lause","monom ial","m k","C 1","b n","O rd","h s","F 1","v 0","a ble","cho ose","md up","C ast","flo at","w 2","m x","ro ng","re mdup","b ad","exp r","_ vars","_ w","to ps","ar d","nd s","_of_ set","se s","{} \\<","a ce","u cl","A dd","la t","h 1","Ob j","{ ..<","\" )","ver ts","on _","[] \\<","seq u",", (","U p","w 1","In l","e t_","| |","q 1","ro bdd_","con cat","lo ad","fiel d_","g _","de n","C harac","l Nil","getWatch List","de st",")) .","re ts","_in t_","ar ray","fin ed","no te","Int v","T ype","R 2","' \\<^","cont ro","Th row","+ )","k er","_in ter","P 2","po st","t w","pl i","nr m","ti ck","gs o","z eta","om or","exp r_","Re turn","matri x_","r am","he ight","tran s_","map _of","M o","p tr","F ield","carrier_ mat","poin ca","in i","p se","S 2","topo logy","e 0","min _","su f","la ng","C t","G a","G u","S ec","de c","ap pend","in finite","H I","par ts","li m","Meth od","rule _tac","eval _","c or","teri or","N D","LE A","C a","f o","fin al_","ra te","L ambda","T A","D en","upt_ k","local s","ter min","ame _","s ha","ap p","ut last","LEA ST","rep_ list","G ro","e bi","tops pace","e rator","par ti","pro du","sum_ list","y 1","de r","Syntax N","* *","c mp","real_of_ float","ebi us","th row","ob j","> >","with in","Poly nomi","! :","ge r","er ule","s_ of_","action _","A E","C _","comp E","fin ally","mo ebius","bo rel_","sli ce_","ne t_","g _p","gu e","m ar","b lock","br k","ad j","H R","Charac teri","cur re","L T","p th","S U","Characteri zation","h ull","L O","h y","proj 2","c op","D O","r t_","che ck","b utlast","q 2","ca st","ob c","B all","prefix To","sis tent","v l","W HI","WHI LE","F rom","In r","as sign","contro l_","v i","me ga","O mega","_ eq","sor ted","us s_","\" (\\<","or s","left rightarrow","is o","Re ason","F V","dim_ row","of f","te mp","ne c","tive _","in t_","Source Term","p er_","st ra","Gro mo","s teps","Backjump Level","m_ set","o th","P os","THE N","met ric","In1 r","f l","ce pt","ST Cal","E rr","summa nds","au g_p","le b","aug_p m_set","in tegrable","leb es","r p","ver ti",")) );","lebes gue","path _image","ln th","_de ri","r ame","ini tial","An no","en um","io ta","lif t_","P _","de lete","me s","S tra","to_ nat","Class Main","th read","y 2","P red","f resh","u do","l p","dis co","A 1","for m_","' }","dim _col","Su p","or da","g round","remdup s","borel_ measurable","mer ge","get BackjumpLevel","ta ble","ri ty","h 2","B asis","te p_","D ag","d_ coeff","hook rightarrow","k a","usubsta pp","1 _","g cd","dis j","ipur ge_","d f","z ip","Pro c","up d","_s li","IN T","F in","s k","flow 0","l ceil","Ar ray","con ve","c ball","prefixTo Level","inter pre","h nf","M sg",">( [","n c","p erm","s f","_ m","ua tion","interpre t_","pse udo","po s","ba ng","Col lect","guar ds","> )))","A ND","f ds_","up d_",": ]","_sli ce","la tion","final_ thread","action s_","ar y","N ot","q ue","fold l","c ms","F var","re d_","T Q","'' '","inp ut","= \\<^","_s ing","next _","R N","_op erator","is_ zero_","> /","ms gs","H O","A L","c han","u 1","bi j","sm ult","R D","as x","_p t","re pli","pend ing","R a","re su","Po int","ipurge_ tr","se rt","count_ space","O times","R 1","_de g","T Y","q u","O bs","ar _","J V","JV M","De ri","') .","') ,","ve nt","_ l","Den y","N T","T U","s pmf","or _","st rong","out p","assu mption","simp le_","oth er","n er","p es","ter ms","T _","fa ce","f set","evs 4","TY PE","re c_","val uation","Ct xt_","bi j_","Su bst","l length","sym metric","I od","si c","++ \\<^","> '\\<","_i array","R es","P l","r ing","f rac","= =","a re","lock s","F _","pre _","PR OB","Pl us","L _","an _","ra nd","_b et","repli cate","RE TU","RETU RN","Var s","i gh","exe c_","s r","Sq union","redu ce","b isim","p f","le ve","label s","F rame","in ds","par t","con sistent","_re p","_c lo","b u","va tion","en code","at_ top","P P","nu m_","u res","disco ve","H Pair","row_ length","> ';","sg n","F s","t_ def","d ow","si tion","s pan","gene ra","set_ mset","A sm","in st","op _","pseudo _","T WB","} );","Asm No","re es","ma ge_","rat_ poly_","u re","trans_ fun","extra ct","_deri vative","Un i","p j","a Group","> [],","C n","(( (","A u","B od","C om","t ri","ad joint","suf fix","Bod y","b al","w _","ra _","he d","'' ;","sp r_","T VarB","_ exp","de v","as so","= >","re en","C ond","F il","H 1","new _","p ut","CA RD","const s","e mb","discove red","X a","pol ic","A_ of","extract Frame","cop rime","evalua te","deg reen","w ord","curre nt","ar cs","no bdt","1 2","Stra t","le vel","col um","R IV","fun _","Ke ys","DE RIV","h ops","S e","carrier_ vec","is_zero_ row_","_p o","w t","M _init","h 0","bo ve","ra p","Mk t","Al gebra","M p","is_zero_row_ upt_k","e ucl","Proc CFG","in it_","G _","(= )","] .","t ls","to _complex","yc le","l d","al gebra","n ull","H e","p at","a nt","o t_","la ss_","fa il","{ (\\<","< ..","stri p","l ists","con j","is _c","xc p","[ $","or bdt","f f","S to","R s","# }","d fa","k en","of _complex","star t","RE A","M od","reg ion","clo sure","de pth","l b","ec t_","if ace","Method Main","Q _","D ef","P bij_","# :","S P","de nsity","Tick et","ri an","Pri m","a bove","list_all 2","comp on","rat_poly_ times","Pro per_","el im","Sto re","st l","te st","lea d_coeff","n one","bang Rel","m ulti","o id","HR B","HRB _slice","ca t_","va rian","ti al_","ca ke","parti tion","f alse","e w","F W","V bl","interpret_ floatarith","p le","de d","in c","' [","Or Write","Read OrWrite","v p","s_ aux","O c","n P","net_ tree","pr x","cl ine","u 2","A 2","ac h","k b","M I","to ur","ra y_","Fil l","con tour","_i ps","L ess","l ub",")) }","si p","Polynomi al","re st","w al","_de nsity","U psilon","N G","con nec","fin d_","sto ck_","D B","nsi on","ab s_","deri vative","extend ed_","code 1","D IM","b op","t n","_con st","x p","_i mp","k inds","up cake","Le ft","ar g","Ex p","Deny All","stock_ measure","LO W","li teral","actions_ ok","conve x","He ap","evs 3","L ow","r b","en tr","LE NG","LENG TH","dist r","und e","s hi","O ne","rn ort","In f","{ ..","G o","on _c","D ec","\" ...","bound ed","t p","finite _","ext TA","si on","_in du","bs 1","l ho","ph is","omor phi","con ver","pseudo_ proj_","state s","A t","lho led","ar d_","1 1","Uni q","in f_","sq subset","inse rt_","indi cat_","indicat_ real","B 1","_ se","stri ct_","ul ar","outp ut_","Literal s","usubstapp p","con tent","Ga uss_","f vs","J orda","map_ poly","sta ble","Gauss_ Jorda","be z","B 2","id 2","or ts","$$ :=","L ists","unde fined","te ns","w ri","cat or","sha dow","wellforme d","ra di","bo ol","i mage_","co d","Ctxt_ Body","u tion","al s","bit ra","_ A","to ken","InvariantWatch Lists","h b","_sing le","* )","_ _","te nce","le ct_","} }","s yn","eff ect","evs 2","Inter pret",": \\<","C hi","_b lock","atom s","da g","CFG_ Interpret","L Cons","unit_ disc","extend s","Le af",") ])","net_tree _ips","_ mult","ln ort","I s","F ree","line path","open in","vi ew","ta ins","cl _","h ar","produ ct_","fm lookup","sub topology","div ide","F O","fol d_","de r_","bitra ry","nth s","l m","_re du","Node s","N om","0 _","ha sh","u hnf","Gromo v_","\" ]","I T","remove False","line ar","removeFalse Literals","fm restrict_","ar r","min arc","_co eff","la d","indu ction","indi cator","clo ck","list _of_","poinca re_","m xs","_c l","Bo und","_ to_","ci ble","Bo ol","w it","od d","3 2","measure _pmf","com pa","po int","f rs","me th",")))) ))))","poly _deg","_ match","re cf","b inp","e s_","is et","F orm","Z e","in v_","JVM CFG_Interpret","ver te","va ble","finis h","type _","_t v","th at","N A","e re","reac h","@ \\<^","L xy","C C","CFG_ node","num ber","Dec ision","s y","tw o","bound ed_","restrict_ top","pow er","b val","< ..<","sequ en","case _","From To","Pbij_ extends","Ex pr","perm ute","_ var","polic y","con _comp","y vec","lef t_","expr_ sem","to ri","Ze ro","to _iarray","_in de","S WB","_ proc","us h","ex p_","' )))","kb p","db m_","j kbp","flo at_","B C","sq n","colum n","pre s","a s_","orde r_","D is","re v_","sm 2","a h","mula tion","x3 2","la sh","os lash","min i","e a","ag ree",">) \\<^","x d","e vent","shadow s_","Ex it_","s_ mset","log y_","imp l","R S",": \"","D s","x3 1","ven v","Me m","H as","ge n_","e cl","Tick et_","b et","g t","_of_ list","mute x","al low","c pt","ip p","ce p","L INT","Add r","G REA","GREA T","w rap","S top","M 3","Ticket_ mutex","se l","Lo c","fmrestrict_ set","e c_","sequen ti","if f_","ite rate","re name","fact or","line _integral","le te_","= \"","te s","list 2","Ord Sum","_s rc","sequenti ally","redu cible","OD E","ac tori","ty pes","com b","') \\<^","int ra_","rea d_","g 0","L 1","j a","Par tial_","w rt","Ex ec_","S Rel","n p","_ a","v o","al ist","ro ot_","L et","circ le","p deriv","code Cons","] );","p subst","> -","c alle","bd y","Au th","el l_","ES T","_ S","state_ measure","$$ }","hook leftarrow","empty _","mo de","alpha _","_ mat","L ast","Int g","we en","on ly","T op","Mo del","I nd","set _pmf","Pa th","S tep","com m","or t_","p ub","me ms","xi om","n i","Suc F","prod_ list","S Q","_s y","is norm","er H","ex I","tra ce_","Entry _","SucF bd","trans lation","get_ return_","s_ to_","homo logy_","verti ces","ex pec","se c","dim_ vec","bs 2","ad di","b v","pro cess","rat_ of_int","se nd","; \\<","con tains","is ta","GREAT EST","jo in","No Msg","_ term","diamond op","expec tation","A ction","get_return_ edges","ir reducible","homology_ group","_ bound","I D","B S","cl ar","C atch","ur ve","M at","of _int_","add_ mset","on_c urve","inter pret","_ Entry_","jkbp C","b exp","i x","d 3","return _pmf","Le ngth","Re f","h ol","Exec_ Comp",")) )\\<","N B","free _vars","z 0","it s","s_ list","B ran","Bran ch","al t","fail ures","pseudo_proj_ True","is i","if y","l v","uni que","sub group","clar simp","P r","intra_ kind","code Nil","Obj ect","al lo","D F","Sigma _","y 0","proj 2_","I Edge","R M","vector _derivative","authK a",") +","A ct","dist ri","fl s_","evalua te_","_s yn","j 1","ts 2","n hi","Al low","wellforme d_","C h","prop er","bu f","( <\\<","normalize d_","PR O","F F","deri vable","rela tion","Gu ar","diff ere","off s_","contour _integral","_set s","dec ision","( [],","ar bitrary","Gauss_Jorda n","in terior","M ul","d gra","S PR","as sert","s pec","AsmNo ReadOrWrite","fil led","M S","S G","r k","# >","l hs","t xs","ul l_","actori zation","ass n","return_ node","ex cept","_ Exit_","Sigma_ Algebra","lad der_","K K","s_ eq","run _","n m","ri es","T ran","di ag","pre ms","entr y_","m y","x 6","d st","D _","inter val_","dbm_ entry_","di ms","s ame_","Q ue","Que ue","a o","el ts","pr v","Mat ri","nhi p","F resh","[ \\<^","ta n","tr m_","st op","verte x_","is DERIV","omorphi c_","dbm_entry_ val","compon ent_","C O","con e","tr m","r l","bij _bet","ar ray_","SA T","genera te_","tree _","d m","aa a","v v","g ri","monom _mult","output_ fun","m n","t mp","rel _in","ta _","star t_","T I","ction _","_cond _exp","ob j_","n b","xa a","o ut_","af fine","evs 5","suc cess","_ to","j 2","C hain","finis hed","C p","q ua","bd d","list2 FW","SAT Flag","get SATFlag","list2FW policy","_in c","i tion","E mpty","ra tion","e 3","L 2","pi 1","g r","l Res","_comp on","ce d_","spl it_","or y","Gu ard","_in _","I Array","buf fer",">+ )","_i vl","@ @","con fi","E L","P ush","com mute","mult iset","ba sic","p here","r m","o v","pro ot","ti c","bij_bet w","D o","_c ar","te ger","pare nt_","Matri x","Sq inter","pi 2","go od","inf_ llist","ri gh","um my","' :","ma nti","so und","max i","upd_ cs","q i","is e","to_ set","_in tegrable","I 2","s_ cf","Deri vation","pe ct","val u","_p ri","C Edge","te n","nti able","_c ong","chan ge","differe ntiable","ro ss_","IM P","comp ose","S ing","_re v","Re ach","> !","get Reason","d ma","P ow","top _of_set","l y_","S S","f rees",")))) ))",") ],","ref l","_ n","EL SE","d le","has_ integral","is_c upcake","_c vec","{ -","v 3","less sim","cir cline","co ef","am ple","xs s","si de","net g","Ar r","le tion","c r","no 1","en sor","con st_","l ds","se m_","T ensor","($ *","_c har","[ ?","d l","de fine","le s","env Obs","rel_in terior","- >","event u","type of_","_f act","me q","HO s","use d","f w","o de","m Hom","re t","3 _","Ti mes","f f_","Su b","z _","first _src","first_src Net","M A","R Val","op p","d ummy","P re","connec ted","simp lex","rand om",">* \\<^","matrix_ to_iarray","> ((","eval B","ipur ge","_of_ pair","R err","L IS","swap s","Rep_ G",") })","ac he","] }","exec ute","strong _term","strong_term _class","_de st","pre_ strong_term_class","si meq","InvariantWatch es","D a","_car rier","s ds","Tran s","moebius _pt","n orbdt","parent_ node","R b","c ted_","col s","> :","j view","ab v","A B","X X","si ble","ba ck","field_ class","on p","tm t","R P","sa f","mi t_","alpha_ rp","S tmt","poly n_","le ast","orde red","E X","m r","_ta il","G G","R T","f id1","saf e_",">) ,","sc ru","ell_ field_class","term_ sem","code a","P ut","num_ params","_ is_","c_ pair","auto mat","automat on","PE C","LIS T","first _dest","scru t","first_dest Net","s cal","op net","parallel _p","he ck","add_ set","netg map","+ \\<^","ab la","trans form","righ t_","_con v","S ts","l u","q q","C ache","_i mpl","Cache ra","g ame_","sub formula","L M","sym Keys","Gromov_ product_","v n","_f a","I 1","ex is","l it","tick Free","assert Literal","at_ right","E g1","re ct","lass_ type","_s pl","n abla","manti cs","polyn_ expr","f map","pol _coeff","C at","do teq","proot s_","Op tion","con f","o u","DF S","evs f","_re v_","exis tence","S PEC","ipp _cond","gri d","') \"","( +)","g ds_","_com b","we ight","rela ted_","g lo","| \\<^","I H","Invariant Uniq","f rule","compE 1","real _cond_exp","at_ left","O n","eval_ abv","ch ar","O R","P orts","r 3","_in to","{} ,","Gromov_product_ at","c ts","_b i","radi cal","h 3","comp P","image_ mset","simp le","se lect","Con tra","path start","C l","/ /","T R","permute s","v id2","n er_","disj nt","addi tion","E l","O O","appl i","x e","state A","F n","sa fe","( *","G 1","_ run","md l","yc le_","D 1","j s","cl_ ecl","ds n","w o","check _single","lea ves","++ +","X d","M s","getConflict Clause","F or","0 1","K as","action s","ge s","var s_","append _","r ing_","G 2","pl ic","ch mid","subst_ domain","imp ly","Put field","sq ua","spr_ jview","de lete_","T L","all _","path finish","real _","sequ ence","O ut","sub terms","amb er","appro x_","existence _ivl","{ $$}","addition _set","X 1","w lp","L D","_comp letion","DFS _invar","N a","c p","p dev","map _pmf","exp rs","l r","comp ile","i M","_c lt","_clt n2","mer ge_","proj2 _rep","with _","n sqn","Left Derivation","und ef","_ simps","as set","N 1","game_ sem","0 0","c ross_","g ds","ex pa","mp t","stri ct","div ision","th read_","is_ none","ter _","sta nd","gene ric","de cl","ns phere","W ls","n fa","# \\<^","_of_ return_node","dgra d_","call _of_return_node","Re d_","R val","h en","B in","g c","r f","t s_","i val",">) \"","se d","poinca re","sin k",") (","o ke","_clo sure","sn 2","stream _space","B isim","sub exprs","mem ber","local State","Fin al","s b","e i","le an","[: -","heap _","asso c","j m","lin comb","_c ir","I tm","se n","ce d","ide an","x 7","id dle","nti er","N at","L Nil","U s","re q","gm ent","w set","Comp lex","w ind","mu tation","sto re","up to","d fs","tw iddle","sub set_","allo cate",">( [],","round _","Chi Rel","# [[","par se","G reater","ar y_","lo c_",")] )\\<","upda te_","{ ?","no ul","noul li","ti d","d r","k nd","ber noulli","row n","suc cs","_p os","poly_ rel","E 2","w ord_","_re f","du al","get_ proc","stile turn","SU P","id x","De cl","inde x_","an no","t Last","pre cond","com mon","E xt","re ss","ma sc","ul ine","ord masc","ordmasc uline","me m_","m t","stat T","list_ rel","const_ list","ing_ number","ge om","6 4","Or der","f ul","ax is","nat ur","case _tac","apply UnitPropagate","wind ing_number","valid_ node","ma sk","_de comp","ve s_","transfer s","E 1","f rown","Edge s","Has h","De fs","indu ced_","shi ft","_in d","p n","hol omorphic_","one _chain","cep tion","l take","Invariant Vars","== =>","tr g","te nd","confi g","lat ti","_c ycle","l map","min ine","ord fe","ordfe minine","di graph","wal k","y b","val_ process","elem ent_","lim it","con v","Su p_","multi plic","de ad","path s","prog ress","> ?\\<","equ al","IF 2","c fs","typeof_ addr","1 6","bez out",")} ;","HA Init","flo ws","au x_","chmid t_","R 3","h am","b_ e","S tar","S D","Ex ception","F lds","control_ var","wri te_","M on","\" ],","stri ps","ma ke","Inv oke","e k","token _run","> @","_ type","g ame","ca tion","R _","component_ of_","one _","fold r","C od","f gs","' ));","i c_","_ ex","real_of_ rat","apply _cltn2","{# }","o und","ro ta","([ (","mat ur","_f actorization","_ env","u minus",".. }","B IT","E P","n ort","O cl","chi ld","ct xt_","An y","jo in_","de note","sta ke","D iff","omor phis","B ot","sing le","pair s","Mod al","a exp","s ch","M ST","Ex ists","c_ snd","multiplic ity","s map","p ns","ra ct","mset _","rel y","IF 1","slice_ edges","K a","den s_","h n","holomorphic_ on","_ ext","@ [","da ta","ad ds","] :","po s_","'' ))","Proper_ Roots","pe val","_c a","Ba se","component_of_ term","int v","suc c_","set inter","ide nt","dens_ ctxt_","PRO G","U se","con v_","wea k_","q uo","nat_ rel","F st","map 2","Re g","br n","as sm","d_ def","d t","tran sition","' ])","c nt","_f set","x2 b","p q","\" {","L filled","N F","of fs","dens_ctxt_ measure","T er","un fol",")))) );","fds_ nth","geom _proc","mk_ graph","x4 2","hy p2","pri mi","varian ts","m l","even ts","T T","varia ble","Proper_ Edges","mon ic","tens or_","_ pair","sub degree","en c","cf 1","if ex","l 0","))) ,","V 0","sub s","obj ect_","l_ sem","F2 set","leve l_","current Level","_inc ident","o sition","o alist","c ycle","DE F","ta g","inter val","_ poly","(( -","s pr","( []","elem ent","de fined","nu me","com pare","coun table","x4 1","kno w","fm rel","co domain","P M","fm l_sem","p pt","usubsta ppt","re s_","{} \"","setinter leaves","L n","P A","I mpl","UN DEF","st_ Model","Co st_Model","Partial_ Cost_Model","all y_","] \"","is 2","at s","proj2 _incident","a rith","v ia","In f_","rat_ poly","latti ce","extended_ distance","evs O","M 0","B s","V E","se cond","den y","_s tar","integrable _on","B to","bin op","Bto W","eval _f","x x","size 1","f Ts","o d_","summa ble","Con t","circline _set","Guar No","as is_","m_ pre","sorted_ wrt","evs 1","j j","_f il","_rev_ aux","conver t_","rel_ ext","_c lause","stri p_","{ {","Ind ex","k h","max im","a xiom","s parse","t F","approx i","si c_","cf 2","pri o","segm ent_","la pp","ti mpl","sh d","eq_ iff","X 2","c_ 0","F D","nth _","_c all","n rows","exte nsion","w or","expa nsion","l ista","m thr","Ma x_","O Sing","llist _of","eq v","c_ 1","type s_","sf x","L a","v f","ter n","path _","f rule_tac","ve rt","ha s","x2 3","j v","non zero","min_ al","con_comp _map","we igh","sourcenode s","auth Ticket","v const","wellformed_ venv","R R","ne ct","sat is","D ata","of f_","I 0","s_ if","As ser","> ^\\<^","))) \"","ind Rel","st p","_col s_list",">( \\<^","G et","p m","u la","effect s_of","i da","c is","ta c","i res","| -","nume ral","b lin","res ol","Ba sic","Re str","t2 s","co st","p Cons","ms x","b ir","c id","to p_","dist _","wit n","F1 set","C I","d g","c_ fst","varian t_","ion s","1 4","subformula s","l _comb","[: \\<","S er","r v","H LD","anno s","Go to","in _carrier","fm la","(? \\<","getC ll","nat_ term","F lo","to_complex _cvec","guar ded","Prim Re","n el","w s1","tr cl","M _","EX T","w ls","$ \\<^","i mage","a rity","satis fi","apply Backjump","moebius _",": ])","Gromo v","_A gr","_Agr K","_def s","o reachable","ir st","cl u","fin _","s_ env","? '","assign s_if","bo th","Decl C","kh off_","bir khoff_","well defined","_ matrix","subst _cl","list_of_ eucl","set_ tree","types_ agree","si lon","up silon","g s2","end ing_","let on","dead lock","compa ct","C _tail","STCal WB","c s_","list _of","eval E","wf_ prog","is_ lub","t1 s","_ floatarith","s_ set","' (","pla n","uni tar","))) \\<^","* :","lo ts","delta G","fold li","p_ aux","valu es","o rac","C H","omorphis m","G ram","L it","S wap","v welldefined","C lo","gs tep_","b v_","dom in","[] ))","fa 1","rep Node","Pol y_","val s","fir st_","as m","_p rime","trace_ parallel_p","approxi mat","di cate","repNode s_eq","h ome","_c lock","free _tv","sto ch","birkhoff_ sum","Fin ite","ge x","cn f","_of_ term","ker nel","approximat ing","Abs_ OrdSum","join_ ir","G e","_in str","exec_ plan","approximating _bi","g choose","form_ err","se p_","code _","ys te","x1 b","map _spmf","E ucl","DenyAll FromTo","h m","idean _space","', (","LE Q","f lat","op t","shadows_ consts","> &","bin d_","@ -","a d_","x 8","ts 1",":: ?'","mat_ of","tr y","word interval_","up per","ns x","float_ round_","\" ,","tree_ edges","u int","D 2","sp here","su ms","sub prob","_f ro","M ulti","f y","approximating_bi gstep_","l finite","s ome","strip_ guards","F AL","FAL SE","Eucl idean_space","mar k_","pat s","C lass_type","wal k_","N ame","g f","l fp","approximating_bigstep_ fun","or bit","pol ar","_in f","fiel ds","si mulation","l b_","to Set","pp _of_term","Gromov _completion","m s_","T 3","x5 2","r st","k vs","ne ts","su r","r pv","Go od","HA States","l x","A S","C D","V oid","valid_path _aux","unfol ded","run s","< )","rule s","HAInit States","x f","_inter val","_re c","in line","x5 1","in ner","A c","_indu ct","Mk I","max_ vars","decision Vars","K 1","j ust","syn th","deadlock ed","val_ name","m 3","I G","ba ck_","_co de","alpha bet","Match Not","> ^","W 2",">] \\<","return _spmf","distin ct_","_p tr","ga uss_","di r","proj ect","m l_","_s teps","_i de","l vars","Tree 2","I I","E lem","to _f","fa 2","close st_","P ort","coef fs","lapp end","disc r","x 9","pro b_","distri b","lt l","S N","getC n","state B","_block _mat","pres sion","pre ser","Null Po","NullPo inter","orac le","{ \\<^","E mpt","Pri _AgrK","ub e","ws1 s","l ta","gene rator","Id le","F A","closed_ except","wel l_","q _","_all _operator","serv Ticket","E _","X s","_ dist","_col um","In teger","rt ran","rela tive_","shi f","Ex pression","f ra","Polynomi al_","s_ inst","car d_","stand ard_","Polynomial_ Expression","l not","n ull_","mono id","r not","_ xs","in str","slice_ kinds","verti ble","i ps","y l","R an","_ 1","w s2","update _clock","_re su","reg ular","sta nce","A x","servK a","s d","closed_ segment","con ju","slice_ kind","SU CC","b h","x2 c","closest_ pair","P Q","tens or","f mp","Reg ions","pri ces","g t_","_ sem","acc u","N 2","_bet ween","pdev s_","Normal Action","f disjnt","u v_","c_ types_agree","_fil ter","ri ze","P_ mod","Ran ge","] ),","se ction","split s","fmrel _on","de s","N S","produ ct","plus _","has_ disc","vec_ hom","_c s","asso c_","g i","pre d_","_s tep_","gds_ is_","g p","of_int_ hom","de d_","ab upd","_con t","fmp red","sum C","n xt","r TS","B r","V S","g on","Clause s","parti al_","D yn","Le t_def","co in","mk_ v","fmrel_on _fset","S nd","For all","poly_ mod","On ly","car _init","un lhd","f_ Exec_Comp","b ss","In variants","af f_","ah m_","mark_ guards","j an_","q Good","_ r","In 2","Allow Port","AllowPort FromTo","has_ derivative","b asis_","_int_ poly","mar k","calle e","O pe","in vertible","gen ts","_co un","Q 2","i ver","F vars","lift_ valid_edge","level list","nat_ to_","o c","ti ent","a gents","targetnode s","Flo at","in ner_","unitar y","subprob _density","cl s_","In p","tar jan_","St ream","resu mption","l s2","K ab","glo bal","_in variant","d ing","t st","sub matrix","reduce d_","! )","param et","sum_ upto","sup er","erm ite","new _tv","o ri",">) .","_clo sed","strict_ mono","_match er","as a","] ));","cpt n","just ify","con f_","ri ve","rule set","SK IP","justify ing_","i ed","change s_","ker b","mk_ eq","matrix_ sum","IN F","Gram _S","1 3","ua ge","_f resh","resu lt",") |","se es","m ent","sub path","atom s_mset","Re p","ground _","_con ver","sin ks","or th","circle path","n_ k","li ver","isi mulation","ri o","[] /","ds k","_ca ses","_ pol","_c han","b ridge","ar rive","mes on","_re c_","not_ shadows_","_fa il","evs 6","poincare _between","v P","mk_eq cl","hom _indu","fo ur","_bound ary","ro u","ra ph","no m","dag ger","o lean","div is","tarjan_ params","K s","x1 2","def Node","t Obs","cl t","inp uts","r T","tr ms","to pi","la n_","homo topi","t xt","Q u","Bo olean","R ab","(( \\<^","state ful","_ eq_","weak Bisim","Eq u","radical s","with_ proj","t 3","p_ f","de comp","are _all_operator","Do main","W 1","as 1","_p m","f und","InvariantWatches El","instr s_of","size _","up le","equ ival","normal _","pla y","do ub","line _","Con tain","_ un","e m","rt 2","aff_ dim","d rule","uni form","_c f","min i_","en u","E K","sem_ env","E ats","rb t_","From F","stra teg","InvariantWatchLists Contain","Clauses FromF","Only ClausesFromF","InvariantWatchListsContain OnlyClausesFromF","homotopi c_","imp li","No tes",")] \\<","related_ v","und er","clt n2","Mul _","li m_","mp c","p net","sin var","ce ss_",") }.","p_ i","match _","abs or","_ iff","update s","no Low","noLow D","name 2","Ser ver","execute _","cls_ val_process","col lect_","k D","Re t","of_ real","unit y_",">< :","\" ])","io _","R k","pub K","ip assm","> ));","no p","doub t_","cur ry","+ ,","q a","is_ generic","sink s_aux","sing ular","Rep_ run","R adj","( #",")} \\<","bet ween","inf dist","noLowD Ps","append_ name","is_ real","_p ow","Dyn Com","_ Stream",">{ {","o o","safe_ formula","stl ss","both Net","p Ts","ar b",">* )","in_ doubt_","[: ]","tF irst","m ent_","_inde x","eff ect_","for ma","trace_parallel_p lan_","p x","sub c","same_ level_","A g","rela ted","ac cept","a 0","a vl","u M","hom_indu ced","_con nec","_con text","natur al","( :\\<","a th","ra w","vertex_ 1","nn _integral","nn f_","reduce d","_ for","free db","undef g","same_level_ path","_ Collect","sp vec","f lag","sig ne","conj I","S_ M","c ut_","p de","hi de","Con j","Ord P","new A","trace_parallel_plan_ strips","sub module","C ar","d iff_","s pect","c_ dom","name 1","k au","us _","kau ff_","O P","AsmNo Write","term _of_pair","kauff_ mat","mat_of _cols_list","ge ode","up ds","jump F","FD Ts","bh c","v is","Subst Form","as 2","dom _","ma n","type of","star _matrix","re pt","last _","Invariant Conflict","_c mat","if a","LL L","Sta te_","Rep_ OrdSum","an on","xc pt","_in verse","is e_","precond ition","Q s","ST R","first_ bothNet","M P","si ve","_of_ state","po se","Literal List","steps 0","non _","C L","M K","lebesgue _on","_c heck","not_shadows_ vconst","Se gment","not_shadows_vconst s_env","run_ one","real_of_ 1","differentiable _on","s_ consistent","c um","list _of_set","free _","re fine","subst_ lit","qu i","supp ort_","_sy s_","min_al gs","x g","gh o","i k","P erm","no min","geode sic_","MK T","c ycle_","che ck_","ite ms","i_ Exec_Comp","CO NT","i_Exec_Comp _Stream","i cal","mset _set","opposite LiteralList","pro dag","se pa","mem ory","_s pec","a i","adj ace",">* ;","( !","a_ _","poincare_ line","pi red","relative_ homology_group","CONT EXT","set Reason","intro s","ex pired","q rt","W W","h ist","_of _sys_","addr _of_sys_","set_ rel","sha 1","iv l","_is_ node","G t","ct x","gho st_","addr_of_sys_ xcpt","density _context","_ v","Finite _","2_ var","paramet rize","x3 3","d_ subprob_density","has_ parametrize","has_parametrize d_subprob_density","db lock","al ts","1 5","res Chain","> -\\<^","t Length","t m_","n cols","sub co","valid_ region","less_ gex","sub graph","bound ary","less_gex p_aux","> [\\<","_con v_","complex _","run_one _step","trm_ rep","common _matcher","D one","valid_ call","clause Index","execs 2","_s c","ite d","S ES","f ending_","pro cess_","sup _","es a","jm m_","set _spmf","heap _re","er y","R g","ent ries","Form ula","SubstForm P","le t_","measure _spmf","R un","Gram_S chmidt_","t turnstile","car t2","ct n","C _of_","p le_","genera ted","H igh","un at","E g","rt 1","e go","rea k","sc c","M C","X S","un stream","blin fun_","C_of_ Eg1","Eg 2_var","c lass_","mo del","_s hi","ba a","M FO","MFO TL","wa it_","f ut","ir s","jump F_","Me asu","I L","tr un",">) }","rep_ nat_term","_c or","D P","par t_","_ zs","In um","float_round_ down","bound 0","map_ prod","fro ntier","re xp","] )))","( ''","ap ath","pa y","+ >","dis c_","w ise","ss a","remove 1","t or","Ex ample","l 3","obj_ id","ml_ v","i es","emb ed","_cir c","t rees","Re su","S pec","Type d","r s1","re w","De nom","proj2_ abs","filter _","ipurge_tr _aux","two _chain","p mdl","con_comp _pol","b il","ri ch","non neg","return_ time","_integrable _on","a te","un fold_","Ge ts","S imply","Simply Typed","array_ length","_int ro","s int","eventu ally","All 2","rich let_","yn Rg","Pol ynRg","the_ gpv","{} }","u nop","termin ant","f 0","low er","stoch _proc","y p","_ le","_redu ction","wa y","pre f","sor t_","b vars","ca n","inv _into","c ha","subse q","IN V","W S","Ope rator","i ds","p r_","sigma _sets","connec ted_","rtran cl","h is","cc w","contains Call","ad m","ord in","exec ution","hy ps","_com mute","valid_call _list","null_ sets","nn el","in e_","e Norm","al t_","pro c_",")))) ;","ar s","PrimRe c1","p subst_","de fs","c index_","usubstapp f","_set _","car r_","continuous _map","conju gate","A_ tail","G en","if _spl","edge _","D A","poincare_ distance","bool _rel","H H","ri p","bdd_ lookup","unity_ root","Co un","Val ue","con s","ne ga","in s_","O plus","un ity","stat DeclC","Par am","d_ f","to_f ract","de c_","remove All","x m","U ses","App end","Algebra 2","lo ss","A p","e ch","cl ine_","element_ ptr","d yn","to tient","robdd_ invar","Pro g","extra ct_","1 7","is_ type","lin k","ech el","_f rom","H M","coin _spmf","In 3","timpl _closure","_colum n_k","2 5","Const Int","arrive msg","y y","in d_","subco cycle_","V _","sub su","flow s_","o arrivemsg","ta ngle","an y","restri cted_","sis te","b 0","< #>","mds a","P xy","Cons is","know n","I mp","sorted_ list_of_set","lift ing","ig _","In finity","q free","_re d_","R B","posi tion","same_level_path _aux","N Aa","is_ unit","base point","p _in","_inter section","al w","t f","a val","squa re","rota te","rl fm","comp _","lb_ pi","CN P","m 0","'' ''","_ gpv","Invariant Consis","~ \\<^","en able","ps 2","Comp ound","nat_ power","c ted","no_ wait_","geodesic_ segment_","b q","inline _call","no_wait_ locks","com mit_","blinfun_ apply","C ard","re ason","lif ted_","_imp _","sign _chan","_all _env","is_cupcake _all_env","for _sc","commit_ for_sc","a tes","c ap","s x","Seq SubstFormP","c ri","closed in","ile d","f li","red_ mthr","trans pose","algebra _simps","Invariant C","r3 b","w hen","Dis cr","qua nt","jo int_","block mat","eventu ally_","m_ def","action_ translation","dev BC","ys a","pow er_","inter rup","a walk","it ute","trm_ ord","is_ mini_","_ as","inc ip","op t_","}) \"","p k","InvariantConsis tent","G raph","rev_ map","rel _fun","io_ target","sub term","Match And",">+ \\<^","per mutation","c la","c b","pro to","ap p_","stra ct_","psubst_ term","ce ive","atom s_","inde pend","cir cline_","lass o","b in_","(( +)","ide al_","Z O","dom _m","<.. }","a f_","w ise_","Final Allow","j_ stack","c harac","t j_stack","l set","is_ measure","_p r","_p f","dro p_","ss 0","existence_ivl 0","H o","d j","= )","fi ci","M ar","d h","_re d","c upcake","pa id_","b ef","_ hom","le cted_",". [","io_target s","h al","_con s","ca nce","S_ Max_","ot one","_s as_","r m_","paid_ A","x_ axis","divis or","is_ expansion","! ,","j orda","li mit_","valid_ return_","valid_return_ list","T ip","appli ca","sub cs","vertex_ 2","ln ull","poly nomi","in order","trans forma","[] \"","([ :","closed_ venv","comm ent","p on","prod_ mset","supp ort","N C","D LO","four _block_mat","Th read","e le","') ]","_c txt","_re spect","pri SK","w ard_","t_ list","p s_","t ten","u verts","pmf _of_set","q Abs","s op","th in","type_ wf","L 4","j ect","en n2","ol y","case_ nat","S_M in_","_ exists","no_ match","rev ision","two C","term_ to_","_resu lt","D ist","a 3","sur j","norm _","i_ branch","_in ner","sd nets","_sas_ plus","p ort","Comp Fun","lo op","map i_branch","_s term","dest s","high _var","bl ue","_fun ction","t_ stop","P c","tr _","_ rand","offs_ set_","_compon ent","s_ on","< *","d 0","f n","resu lta","} )\\<","x1 c","g ap","ol ution","* >","), (","rel_ prod","dgrad_ p_","pon se","w b","de liver","De terminant","J 1","mu m","dis joint","ig Wls","min f","subst itute","applica ble","Q a","f am","inse r","sub _","cor rect","scal e","enu me","in variant_","pre ds","control_ X","sup p_","op er","stat C","sep_ ghost_","sep_ghost_ state","ta s","Rep_ Set","bez out_","inser tion","sen tence","> };","Dist in","in valid","revision _step",">* \\<","fps_ X","( )","D i","gen er","r w","D 0","que ue","L B","ob s_","nt_ tickFree","tObs C","XX X","support_ set","fil l","df j","la y","con tra","field_ simps","> ))))","_re ach","no_ types","st one_","let ter","primi tive_","} \\<^","2 2","fro nt_tickFree","of_int_ poly","justifying_ exec","ln _","> })","Z F","Deri v","termin al","enable d","long leftrightarrow","I O","stone_ phi","] ])","di g","AS SE","Exception al","_s ym","bo t_","Ho are","ra ti","ifa ce_","conve x_","varia tion","_ tm","s_ le","is_ heap","sim Abs","diag ram","poly_ mult","imp I","al ize","yste m","ns c","do cum","ra te_","val ida","B B","control_ Y","_po int","evsO 1","d term_sem","e ps","N Ba","tl 2","ptr m_","tend sto","refine ment_","A K","State_ Idle","R v","up per_","hn _ctxt","ma s","ipurge _ref","Distin ct","strateg y","L IM","trans form_","_ row_","e1 a","P w","ipassm t","t Act","re m_","ASSE RT","quant u","poly_ ring","e2 a","is_ quantu","wf_ jv","m_pre dicate","nomin als","is_quantu m_predicate","SA 1","E val","str _init","_respect s_","ver ge","am ple_","(( (\\<","nth _prime","_w all","M inus","P inj","p _s","ti l","I poly","ro p","Read Mem","var s_of","relation _of","flat ten","i p_","is_ map_","_ expr","remove _","stk Length","is_ leve","refinement_ lattice","sorted_ spvec","is rlfm","th arpoon","Su br","deri vation","_ T","Rep_ N","T vec","r s_","A SucFbd","Asser tion","echel on_","in ts","3 _list","h d_","has_ field_","Example 3_list","y r",">' \\<^","FA IL","sg nx","adjace nt","absor b","_ effect","con tr","Pro j","n h","slp _of_","T ra","l t_","mo ds","low _var","p ure","arc tan","o ip","d v","simp li","aa _","T TP","_w rite","U Subst","du ct","P X","SA s","i z","is_ al","Eq _","s z","prime _","ptrm_ fvs","Rel S_","fra g","< #","t set","lo se","tri ple","_ ys","se mi","Subr ing","n l","RelS_ Eg1","E g2","P op","RelS_Eg1 Eg2","xcp t_","z a","p f1","U variation","chan ge_","sparse _row_","low e","_ diagram","poin t_","node s_","K 2","par Ts","node Type","rati o","af e","Term P","CA s","back ward_","Inv k","Method Invk","si len","mk _rec_","Up d","mk_rec_ env","b reak","lebesgue _integral","q 0","'' \"","H 2","walk_ verts","incip al","_on _","La ng","has_field_ derivative","silen t_","is_ tangle","mon _c","n_ val","proj2_ line_","un wrap","mat 1","is_tangle _diagram","D rop","ham let","c x","l drop","s_ from_","min im","L im","c 3","unit_ vec","li gi","make _","ligi ble","ite m_","re n","silent_ move","forme d","TP _expr","x1 9","cart2 _pt","B ex","f ile","} )))","range _vars","_connec ted","ol ute","preser ves_","_conver ter","initial ize","L S","the _inv","u re_","add_ match","random _b","is_ val","' ];","x5 3","expectation _gpv","local es","v s_to_","InvariantWatchLists Characterization","compile Expr","InvariantWatchLists Uniq","a exp_","C heck","q A","h d_coeff","_intro s","random_b st","heap _write","un label","loss less_","gene rat","_p de","GuarNo ReadOrWrite","valid_path _rev_aux","_ mult_","ul us","_ F","kerb IV","J 2","subgoal _tac","set_ lvars","put field","rou gh","New Exit","ck s","at m","sub space","_re g","cpt n_","I face","Y 2","in stance","trace_ hide","F I","next_ name","th rough","cptn_ mod","se lect_","ri fy","division _of","real _derivative","trans pos","has_ real_derivative","_coun t","L s","bound s","InvariantWatch Characterization","n_ as","B inp","vs_to_ es","x1 1","cut_ tac","inter change_","in side","all I","sub trees","eval D","' ))))","Auth _","w 0","an ts","A exp","od d_","_re xp","jorda n_","well_ formed","ps 1","evalD db","_p er","se mantics","(= ))","tern ary_","Has hed","unfold_ locales","q n","fun ction","- -`","simp lif","_fact ors","si m_","s play","( {},","expr_ sem_","ll b","sc f_","nat om","ct m","inde r",">{ (",";; \\<^","abs olute","p atoms_mset","natom s_mset","LL L_","el i","suc ceq","# [","list set","normalized_ nnf_","standard_ simplex","'] ]","RS Normal","Measu re","s ample_","J o","expr_sem_ rf","normalized_nnf_ match","1 8","conf_ transform","res ponse","h ps","InvariantWatches Diff","witn ess","InvariantWatchesDiff er","L U","S 0","S r","proj2_line_ through","st ut","clo ck_","thin _tac","i Min","str ing","ter na","subsu mes","un curry","Up da","c 0","Auth_ Data","il d","lef tharpoon","Unit s","y mp","E T",">'' '","e Suc","pay load","DERIV _floatarith","me ssa","R 0","mx l","P D","th an","cla rify","H pr","ite rator","|` |","f s_","che me","E s","c atch","di verge","bo b","ant is","erule _tac","_com mon","a form_err","sta tic","Rec v","o gon","Mon ad","= :","M ult",">{ =:","wordinterval_ to_set","f ps","_cont inuous","A M","weigh ts","clu ding","d1 h1","pdevs_ val","_const s","R rightarrow","R cd","scal ar_","absolute ly","t ms","mi x","As sign","j 0","next_ state","Coun ter","_op t","Clo sure","to_ Gromov_completion","C S","te si","fold pairs","part_ circlepath","E E","a v","] ).","approx_ tm","get_ match","} ).","t se","dis joint_","homotopic_ with","cross_ ratio","_ good","s tep_","an ce","high a","open _","valid_ states","insert Assertion","r x","ti ble","tesi an_","inp ut_","fi x_","mono id_","Tra ce","Po st",", \\<","re si","q ty","joint fun","it s_","subset D","heap_re ad","cri t_","> ');","op h","di oph","D D","get field","an te","df lt","), \\<","tra tion","w l","Ex tend","enn2 real","il y","O G_","m _in","Get field","OG_ Hoare","_comp ose","docum ent_","ch y","posi tive","w t_","lo cation","inde ts","element Level","go od_","quo ti","O k","ul ar_","T Var","pha se","slp_of_ fa","interrup ts","W order","f fact","action_ loc","in ver","Dis j","Y 1","x ps","exp and","the_inv _into","b q1","r ng","Phi _","is ome","C_ then","C_ else","\" [","al go","write_ actions","line_integral _exists","Ne ts","_redu ction_","F Eval","Lo g","P S","ca non","_s or","_ dom","Ter ms","# =","n y","Pro duct","Sig _good","_ g","o re","cal c_","op e","Phi_ EP","_p si","is h","Poly_ Mapping","A cc","G S","y x","less_ eq","b is","ses K","domin ates","_fail ures","sign_chan ges","length _","prime _factorization","SE M","sol ution","uni form_","entr y","ge nt_","_ide al","less_ aexp_","uni v_","fset _of_list","u u","P seq","in te","[] .","less_aexp_ aux","H D","nodes list","_ k","Bin op","prog 1","comm it","ge d_","_con sistent","dr in","A 3","di richlet_","sli ce","_reduction_ simulation","s lots",">' ')",">( ?","sm all","AL G","Auth T","l f","out side","h mset","pos sible","z 3","ite m","_in sert","tra ces","C l_","_c ycle_","pri m","HM A_","List Mem","rank _invar","control_ Z","Com bin","is in","Mar ker","R2 3_","de x",">+ ;","In put","ch op","Sa bs","Co 1","back_ edges","i ter","s pp","d hops","vis ited","( {(","re verse","JVM _","y t","_inde x_","Contra 1","loc_ reach","u set","sig n_","( <","proj_ stoch_proc","simplif ied","Pro per","omorphi c","# },","A As","_co ef","th d","red T_","> ])","Den ies","int ra","s terms","_con stra","none mpty","insert Denies","the_ enat","ri e","P x","varia te_","M m","is Leaf","re f_","sum list","Stra t2","pro x","mix _pmf","Ref lected_","Multi variate_","stut ter","Reflected_ Multivariate_","Reflected_Multivariate_ Polynomial","as ymp","lin _ind","2 4","cc Exp","be low","multi way","start_ of","ccExp _syn","dgrad_p_ set","s 4","Rule s","sorted_ poly_rel","rm hist","F r_","ul t_","ct xt","deg _pm","l pp","x j","la s","p ts","fold ing","Field Proj","G rp","seq _comp","radi us","com m_","convert_ multiway","wait ing","mk Id","weak ly","actions_ subset","st mt","l1 a","_per mutation","F tor","de cess","pre decess","moebius_ mu","_b pp","fam ily","sec ure","Q Characterization","is _class","ab stract_","Invariant QCharacterization","term_ to","fli p","succ Perm","exec _instr","commute _bpp","o sn","de sc","add_ effects_of","ta 2","node _","remdup s_","low a","B N","_ ok","_ kinds","_in v1","mon _w","object_ slots","S pan","_ diff","lem ma","weak _reduction","lowe st_","V x","_ I","_in v_","to_ bl","eval_f ds","tm_ poly","indRel R","I pol","le va","s pa","isLeaf _pt","face _cycle","are_all_operator s_","G B","_s cheme","Rab ort","re leva","ch amber","Car tesian_","Finite_ Cartesian_","Finite_Cartesian_ Product","P B","b q2","sy s_","> ''.","or ph","' ');","In j1","Class T",">* (","Y S","de st_","_ sum","con nect","predecess ors","Al location","is_cupcake _exp","bernoulli _pmf","pre v","col l","echelon_ form","d nf","t prg","_cycle s","ins_ is","obs_ intra","seq_comp _failures","de t_","inj ect","h conf","a Key","restricted_ subformulas","l m1","m prog","_sy z_","wf_jv mprog","OP T2","b set","take While","H ermite","bdd h","- =\\<^","fo rest","next_ action","_pri mi","or ds","nsi on_","rec_ exec","delete_ effects_of","g fp","in ext","merge_ guards","xa aa","lim sup","au chy","cf g1","valid_ sop","in _set","releva nt_","decl class","antis ym","B 4","U U","re ceive","set _of_","S im","resulta nt","pre fer","_re f_","c ulus","f re","codomain _block","no c","al ity","den se","Upda te","sol ve","Ar ray_","y cl","Jo in","prog _sem","d3 h1","en tail","_deg ree","fmap _of_list","_syz_ sig","key s_","less_ than","Con nect","Rep_ hyp2","divide s","bounded_ by","re ct_","sa t_","G AM","rup ted","GAM MA","h m_","b pp","pro ds","0 2","time s_","Aexp _syn","interchange_ rows","_ trans","map_ option","ConstInt 32","all _consts","greater _eq","cond _","ou ter","ec tion","ing s","range _tm","block s","~ ~","Ca se","bang Pred","ac hable","in_doubt_ allow","op ti","Suc _","T _i","close st","Abs_ wf_jvmprog","z es","P limit","s length","proots_ within","neg ligible","heap_ base","carr_ prodag","si zes","L ID","S 3","eval_ poly","simpli ci","h old","value _to","SD G","Inter rupted","Meth d","r b_","cl m","li c","stat us","assoc_ bpp","Ct xt","isome try","eq I","ab ss","quo t_","valu ed","k dt","triangle left","b 3","scf_ d","plus inf","has_ vector_derivative","h t","u rity","Invariant Cl","value_to _sterm","for _","_compon ents","fending_ flows","at or","ty ping","so s",">{ ..","square _free","ante c","T k","mp oly","cl k","li t_","Q R","_fro ntier","Lang uage","de no","Flag Characterization","df s_","InvariantConflict FlagCharacterization","A SS","IF1 map","_co st","M M","(= \\<^","satisfi able","le q","node _ptr","desc end"]}}